[UNK]
[CLS]
[SEP]
[PAD]
[MASK]
!
"
%
&
'
(
)
*
+
,
-
.
/
0
1
2
3
4
5
6
7
8
9
:
;
<
=
>
?
[
\
]
_
a
b
c
d
e
f
g
h
i
j
k
l
m
n
o
p
q
r
s
t
u
v
w
x
y
z
{
|
}
×
־
א
ב
ג
ד
ה
ו
ז
ח
ט
י
ך
כ
ל
ם
מ
ן
נ
ס
ע
ף
פ
ץ
צ
ק
ר
ש
ת
##א
##י
##ס
##ט
##ל
##ת
##ד
##ו
##ר
##ש
##מ
##ה
##"
##צ
##פ
##ם
##ק
##ח
##ב
##ן
##ג
##נ
##כ
##'
##ע
##ך
##ף
##ז
##ץ
##4
##5
##8
##3
##7
##1
##6
##e
##n
##t
##r
##!
##?
##2
##0
##o
##a
##i
##9
##c
##h
##s
##d
##,
##{
##u
##m
##.
##+
##l
##g
##:
##j
##z
##x
##f
##v
##/
##b
##=
##p
##k
##)
##w
##(
##[
##*
##]
##;
##q
##-
##}
##y
##\
##_
##<
##>
##&
##ין
##ות
##רי
##ים
##לא
##ור
##ינ
##יה
##מר
לא
##יו
##יר
##ני
##ול
##וא
וא
##שו
##יל
##ית
על
לה
##רא
וכ
וה
##מו
##"ל
##יא
##בר
##ינו
##וד
שה
##תו
דא
##נה
##שה
##יד
##לו
##מא
##יב
##רו
##מה
שא
##רב
##כל
##יש
##נו
##י'
מה
##מי
##בל
לו
דה
##"כ
##זה
##תב
אח
הוא
המ
##"ש
##וש
הא
של
##על
כל
או
##ברי
בש
ומ
ול
אלא
##ו'
וב
##יק
בה
זה
##יכ
##שר
##פר
##וי
##"י
אם
##אי
##וב
##עת
במ
יש
מש
##קו
את
בא
ולא
הש
רב
אבל
##"א
לע
שב
בע
אין
##ון
שנ
##מע
##מן
##תי
##נן
##כה
##"ד
##די
וע
##יון
##סור
שכ
##וק
##רים
##וה
אי
שם
דמ
##צא
##שום
שלא
##יע
לפ
##"ה
##"מ
הכ
למ
הר
##לה
הב
##ורה
אפ
דב
##נין
כי
הנ
##וס
##יט
משום
##ילו
מע
##שב
הת
##ינן
בד
אמר
שמ
הג
##קד
הע
##יח
דלא
לב
רא
##נא
לח
מצ
##נים
##יי
מד
##ריך
וכו'
בפ
הד
##מת
בס
מח
בת
עד
כן
##"ז
##ותר
מת
##שא
הח
בח
אף
כתב
ז"ל
##יכא
ונ
יו
##תא
בר
##מים
וד
##כו
מו
דל
##עה
דברי
לש
##כר
##ייב
אל
##ילה
##אמר
אות
היה
##ראה
כיון
##פק
גם
ממ
אינו
##"ם
אחר
בו
##נות
##קום
##ינה
לד
##לי
לכ
##פס
וכן
##"ג
ליה
מא
##בה
##בד
רק
הק
##מב
דכ
כא
##"ב
##צה
##מרי
##שת
##יין
שאין
שהוא
יה
##שון
הרי
##בי
##שות
כד
לומר
##טע
מק
##"ח
לק
##חר
##זר
##טר
##פי
##זק
מן
##יינו
דר
וש
##יתא
כמו
בג
הל
##כול
##"ע
וג
בב
##תה
בזה
##טל
כו'
לי
##ראל
##לק
##דם
היא
##ופ
מב
##פיר
הרא
##דר
דק
יד
##תח
הוי
##ולם
##תוס
##שים
##כות
##נת
##סו
##מד
ואם
##"ת
##מות
בין
##חו
פס
##ירו
זו
טע
שכתב
אחד
##ודה
##"ק
##תוב
##כי
##יהם
עצ
##שי
בכל
##סת
שע
מי
##יום
שו
לג
כש
##רה
דבר
מפ
##ולה
נמי
אב
בכ
הו
בעל
מכ
עליו
##ירה
אפילו
##ש"י
##מב"ם
שיש
דהא
ואין
##וע
בק
צריך
כלל
##טה
##יים
##חת
דע
##רק
מל
יכול
אסור
##בת
בל
##ירוש
##חה
הרב
##תיב
יע
וק
##נס
עכ
עו
##מש
##מרינן
הה
וח
##וקא
ישראל
חייב
נת
לפי
##ימן
##יהו
הס
בנ
הפ
##יות
דרב
##ציא
##את
##"ו
##"ט
##כן
##טור
##תם
##דה
מס
##תוס'
##יני
##ביא
##וף
דס
##פל
לאו
דח
##פה
##אה
##מ"ש
##"פ
##צר
נראה
פי
דג
כה
##יתה
דאין
וזה
דש
סי'
##מאי
##דו
ות
כאן
מותר
חו
גב
וא"כ
שי
שח
ה'
דין
לת
##זו
איסור
##רע
ביד
##עלה
אדם
מקום
##טו
ואפ
א"כ
##דול
והוא
##ודם
כר
נק
##רץ
אומר
שני
##בו
##כא
אותו
##חד
כך
##תני
##חות
##ינא
##יתי
שאינו
אשר
עם
##מ'
הרמב"ם
היינו
וי
##פש
משמע
ויש
##מצא
##אר
##מור
##"ן
##צו
##מרא
##כח
ע"ש
הכי
נא
היו
##ואר
ית
##בע
להם
וז
טוב
##טעם
להו
##גו
##"ר
##של
יום
##קה
מ"מ
##גד
ואף
לר
עוד
כדי
##כת
בלא
ר'
בית
קד
##"ס
כנ
##גי
##רוב
##עשה
מר
##יקר
##קדש
##ורי
דעת
בני
##בוד
למי
רבינו
סימן
##מוד
ודאי
וגם
דמי
כלו
שפיר
לענין
##פרש
##סר
##עי
שמע
##"נ
##לוה
עצמו
##ירות
##נם
##בור
נכ
הם
ור
חד
ומה
שאמר
ע"כ
דנ
שת
הז
ברי
##פו
בי
הי
##ידי
##חל
רבי
והא
##גל
דוקא
גבי
##ייך
##מין
##ושין
מאי
##קים
דו
כו
רש"י
##צד
שהרי
מפני
שק
##תוך
##ותו
##ואל
קודם
דאמר
##ברך
עיין
וכל
שיה
בן
אפשר
##חז
בשם
שבת
ג"כ
ועוד
##עו
שלו
אמ
##בא
##כין
רו
##שוב
יותר
דת
##הם
סו
עכ"ל
##ומר
להת
אז
פר
חל
לך
##רבנן
התוס'
יוס
אפי'
ע"י
וכתב
המו
##ברים
##פות
דאי
דד
וצ
דף
##לוק
##ודאי
שמא
מג
הכל
##צת
שייך
ועיין
##כים
##שיב
הדין
##צי
לס
למה
כג
אחת
וס
##חק
##מאה
והנה
תורה
##קב
בפר
בז
תק
##דים
האי
במקום
##חים
א'
ב'
##ולי
דאפ
הנ"ל
שהיה
אש
ספק
אמרינן
##רש
חי
##מיד
##תן
גדול
הוה
מכל
התורה
ואי
אלו
לעשות
מהני
##ודע
ועל
דאם
##מון
##ירא
##כם
ביום
מנ
אצ
הכא
ידי
ואמר
ופ
דפ
##טא
לעיל
עליה
##ואה
##פא
לרב
##שב"א
מצוה
כמ"ש
##שמע
כבר
לאחר
לכל
הקד
##כך
נח
די
דהוי
ליש
בשבת
ולה
שאם
מלא
דכל
##ורש
##ירושל
אך
##זל
##שובה
##ונה
##פת
ממנו
ס"ל
וז"ל
י"ל
אה
##נית
אחרי
##נאי
##רך
אני
##דא
##לך
מדברי
זמן
נפ
לנ
ולכן
כגון
עדי
בשו
##ורייתא
##שאר
דס"ל
##קל
##ולין
התם
קשה
##לם
##סי
דכיון
הזה
##ותן
##טב
##רות
חזק
לשון
##רוך
אינה
בהם
המש
##סה
##רקע
##בירו
איכא
##מרים
עשה
מעשה
תו
תל
##ורא
##צות
##דות
הנה
יהודה
##קי
ג'
לית
##כב
יח
צד
ממש
ד'
קרא
קאמר
שיע
קט
צרי
דרך
##עים
אכ
##ילת
פטור
##ניו
##ברא
היכא
ולפ
עב
יב
אמרו
טו
##כיר
שג
##טמא
הרא"ש
##ורת
##כמים
איש
##יטה
לפני
##ינם
ני
##יתר
מז
כס
נו
שש
לזה
ואינו
##אן
כשר
ראיה
היתה
הפס
##ירושלמי
פיר
שהיא
מיד
הביא
משה
##מוך
ורב
שבו
##ניח
שום
##ירי
בשב
##צוה
##חמ
במה
הצ
יהיה
ואפילו
הי'
##ורך
הן
דרבנן
משא
##לת
##ורות
##יירי
##ובן
##יתו
לנו
ובא
נה
##יוב
כתיב
##חי
##שיט
##סק
##ער
וכמו
להיות
דבריו
יצא
##עיל
הדבר
ביה
טעמא
דברים
כשה
בט
##לח
##ובה
##מיה
##ריש
##רומה
קוש
טעם
דהיינו
בפרק
דמה
##נהג
ואח
##יבא
נאמר
לן
וגו'
שנים
אשה
מזה
##צמו
פי'
שכן
##זור
בדברי
וכיון
עדים
הבעל
בדבר
יצ
רוב
דיד
##שוט
אותה
שנאמר
מחמת
כתוב
##הו
פרק
##בין
##רת
אד
##עות
דיש
כמה
והר
##ינים
הלכה
שרי
ברא
והיינו
שמו
חמ
מ"ש
דאף
יא
לדעת
למימר
כלומר
דגם
##רון
##עבד
##גע
פע
מיל
שנת
ליכא
##גה
אמנם
##יטת
בשעת
##יף
שהם
##שיו
נד
לל
הט
##ימ
שליח
##ברת
יק
דכתיב
פסול
ראוי
##פיק
יוח
##לוי
בצ
תח
ד"ה
ומש
נש
יודע
##לות
לעולם
פסק
##מילא
ולפי
תוס
מבואר
אנ
מצות
תש
והרי
##דיא
כמ
הבית
##זיר
שמעון
הרשב"א
יוסף
משא"כ
חס
##וסקים
##שונה
##רבה
לצ
אלה
לז
דאיכא
למע
בעי
כח
##טי
ברוך
##ידו
גופ
נמצא
##יכי
##צריך
עיקר
פלו
##פין
##כיח
שכל
כלום
##בח
יוחנן
##ברו
##זכר
##ידושין
חז
אנו
##קין
##ונ
חש
##יבור
##"צ
##"ך
חלק
במש
##כור
מיירי
הני
בפני
כדא
##מב"ן
##שרה
אוכל
חול
##עין
##רג
מהם
##ילין
שד
גט
##יעה
טה
חוב
##ולד
##כתא
עמו
גו
##שיא
שבא
ומו
##קשה
##ידוש
דאינו
ונראה
ורא
הראשון
עבד
אית
שפ
כת
הקדוש
עליהם
פלי
אותם
בבית
נאמן
בכלל
##יבה
##ני'
##און
ע"ב
##"ף
מצד
השו
והש
תפ
כתבו
ביא
מהר
יוצא
ענין
##רן
##לכות
דמו
המת
לפרש
##יכול
באו
##ב"ד
##רבן
ע"ז
##דון
שנה
##ודש
דאורייתא
##ידה
דיל
אתה
גר
היום
##לכה
##עינן
מעל
##כו"ם
גז
##יוצא
##פסק
##נ"ד
דאמרינן
מצא
אומרים
קא
שטר
מוכח
##יקה
קיי
כול
חכמים
קאי
בשר
##לים
מדרבנן
##ושה
##קח
##ופן
##כהן
שית
פירוש
##דין
וכמ"ש
האשה
##יהן
דאפילו
##וג
##ליח
##עתה
שהביא
ממון
יעקב
רוצה
רש
##פים
מטעם
כלי
איך
אבר
באמת
ר"ל
בענין
ראשון
##מנה
ע"א
סוף
נע
לקמן
דהוא
כב
##קר
להוציא
##סים
בנו
לכתח
בידו
זאת
הפר
וזהו
##מך
עושה
עומד
ואח"כ
חשיב
לחלק
כרב
ולע
שיהיה
##ותה
המח
ימים
אחרת
",
וכ"כ
##מח
אמאי
גד
באי
##נאה
##פט
נקרא
כות
יר
להק
##עתי
##צים
##ישב
בעינן
##מ"א
שהיו
יוסי
בעלמא
חבירו
נפש
נעשה
בתוך
##אל
רבא
הרבה
הכתוב
תה
יל
בהן
##נינו
##שית
##חזק
##יכה
מינ
שבועה
אחרים
חיל
אצל
למעלה
##פ"י
נג
אס
##בות
דם
##עד
##יקרא
לדברי
חזקה
לשם
תר
##מאן
##או
לכן
מים
כנ"ל
##כרי
ניח
אח"כ
##פרע
##קרא
##בלה
##ותא
לחזור
##שבת
הבא
##יטול
וכבר
קנין
##מנו
##בן
ירו
השני
וכי
##ינהו
שתי
##והו
##וקי
הואיל
##ורין
שר
אמת
קדוש
בגמ'
ודו
שוב
ובזה
שאמרו
קרי
##חט
##תובה
עלי
##יעית
טמא
רבנן
##יעו
הארץ
עי
##זיק
נתן
##תוספות
תשובה
##היא
##יכך
קצת
##ישראל
##ינוי
##מל
סתם
##ונת
##מם
שמואל
לגבי
היכי
##ריב
לשו
##מצ
##קן
מודה
מקו
לבד
לגמרי
בספר
העולם
##ושע
שאר
פשוט
חוץ
הר"ן
דקאמר
מידי
ראובן
##שונים
##כה"ג
ברשות
הלא
עדיין
שזה
רשות
האח
בפס
וכד
ובה
##קש
##סף
מרן
##ישינן
לי'
##כתב
הטעם
כהן
להתיר
תחת
פירש
תע
אביו
קו
ארב
##זי
##גר
בגמרא
ומת
##טן
##יאמר
##פלל
פשיט
בדין
להע
##שבע
המג
##לב
בטל
כ'
להא
##חם
ידע
בשביל
תי
שכבר
עיר
פירות
שט
##ותיו
דינא
מתח
שאני
##רית
לאכול
דזה
האו
כאשר
בסי'
##זרה
##ריה
וע"כ
##ניהם
מוכר
נימא
קנה
והיה
##עתו
בלי
העיר
מהא
##וסיף
האדם
תוס'
קי
##פך
לכתוב
בתר
##סוף
ר"י
##בים
##טאת
ליתן
דליכא
ואחר
##מואל
##ינת
עדות
##מבואר
בשל
ואת
סבר
כפי
דהרי
אתי
..
##מוה
ב"ד
משו
דהתם
ברכה
##ום
לכך
##ניה
חיוב
לרא
##יעור
##דל
טומאה
##פרי
##חזיר
בלשון
##רא"ש
עשו
##ברייתא
קב
##ניא
##לוקח
##יטין
##כלו
עלה
שנא
להר
אשתו
איתא
ניחא
הדברים
הטור
##חמיר
להביא
דעל
הגט
ויה
רח
יאמר
##רוע
##שין
ראיתי
נגד
להקל
האב
גמור
שיו
הרמב"ן
דעתו
במס
##ולת
יצחק
##תחייב
##מרי'
##דכי
הול
מחו
##כוין
כבוד
ממה
יעו
תנאי
משנה
##נח
##צאת
ולכך
לכא
יין
ולד
מצי
##שו'
פו
פשיטא
מזו
הפוסקים
שיעור
בסוף
במו
##דיין
בזמן
##קבל
##סא
דר'
ביו
כשא
ונת
היתר
##צ"ל
בודאי
ההוא
שמת
שוה
נותן
##ירין
##מורה
המע
ריש
##עיף
ידו
בד"ה
הנז
דבא
##בירא
חיים
שאינה
בהמה
קרקע
יהא
חוזר
פ'
##לע
##דבר
קמא
ומי
##טעמא
מיו
מביא
מיתה
##הל
ואפי'
השם
בתו
ובין
והמ
##דש
##גב
דהו
מט
".
ופיר
והו
לכאורה
בפ'
##זקת
שהא
שניהם
והיא
אברהם
##כון
##כאורה
שכר
טר
עובר
##טים
בתורה
##ופה
מילתא
הגדול
שיהא
אור
עכ"פ
הש"ס
הגאון
כנגד
ממו
כפ
##קט
תרומה
אר
לאח
רע
##גיא
##ותם
דדוקא
בחו
ומ"ש
קטן
##מז
ערב
בהא
אינם
בסימן
נקט
לברך
בפירוש
טפי
ז'
מוק
שיר
תנא
כדברי
##שם
שהו
תא
נוה
שאפ
הרו
##ילך
מדא
יעו"ש
##כילה
##רונים
רבה
##יך
מוציא
עצמה
ובר
##תבאר
לבעל
נוהג
##ירת
קשיא
##מץ
בלבד
##תני'
ממילא
לדבר
אע
הסו
##ענין
##חא
ואפשר
ומ"מ
בעצמו
יס
חדש
איזה
שהת
הראב"ד
פליגי
בשו"ת
דאית
מעות
##טלטל
דמשמע
לשלם
לחוש
מכח
ורק
בקד
##ומד
גדולה
##לוקת
השטר
שצריך
##יניהם
שגם
שכתבו
הך
וית
זכ
##ואין
וי"ל
שעל
הנאה
והנ
מלאכה
חיישינן
חת
בעלה
עמה
##כתי
##לל
מוד
ליד
##ילות
עוב
איירי
באופן
##ישי
##טרי
וצ"ע
חוש
עש
עתה
הנו
מרו
המים
שעה
דכתב
##חין
קרוב
פחות
##תים
דאסור
מצינו
קמ
יג
תיק
דלאו
הרי"ף
נשא
##פץ
בשטר
##דע
חצי
סע
שס
דהוה
ובמ
לבית
מתנה
משת
הצד
וצריך
א"ל
##זית
שנו
תרי
##ל'
מעשר
##פקא
כסף
פעמים
##ברר
##לום
##טרו
ס"ק
##דרש
מכאן
סת
שכתבתי
##פלה
ברור
שלשה
שיח
תרו
קל
בירושלמי
רבים
עק
ראש
מנה
המר
##מתו
רצה
פלוני
ע"פ
האם
להחמיר
לצורך
מינה
כמבואר
מתוך
עולה
והוי
דא"כ
דהכא
אמו
ונמצא
דוד
##כתיב
##ניות
נר
הו"ל
שרא
דידן
תב
משל
בתוס'
##קנה
בהדיא
מסת
##פור
##צון
אליבא
המצוה
##פרק
ודו"ק
נס
מאחר
כר'
ידוע
יפה
קול
##בית
מית
##כנס
הקשה
חשש
אשת
משם
יראה
למד
בתשובה
יהושע
במקו
דמע
ליישב
##כש
חדא
פרו
הראשונים
התח
מאיר
##ברכה
ומשום
##ופו
##טומאה
נאמ
נב
היל
מיניה
מדין
דאפי'
דז
בכך
מקרי
##פיקא
לישראל
המה
לחו
##בואר
האיסור
שבע
דודאי
חילוק
לקיים
##וסק
ספר
##שובת
זהו
סגי
##פינן
ואז
סובר
מפרש
##פני
##פיד
##מיא
ובס
מכר
זכות
קצ
ובש
בהו
##מרו
פרי
##כנ
##יטב
##וען
##גתא
והת
##בועה
אלמא
כאילו
##כמה
##ניס
##פתא
בדרך
למ"ד
מתני'
מיהו
קרבן
##וסר
להש
דמיירי
##עתא
טב
ואחד
##יקו
פריך
מקרא
הנז'
להדיא
צר
חמץ
ואל
קידושין
##גיע
מקבל
והע
##עיא
עני
דאע
והביא
##יחה
מאד
ה"ה
אותן
עשרה
צריכה
##רוג
שמים
שהע
##קדק
המז
כולה
ותו
##חלת
התוספות
מהן
##גג
##ירץ
והם
המלך
פתח
##יעזר
##נב
סברא
##ובא
לחוד
הוד
ולפ"ז
##למוד
עולם
##דיעבד
##ודשת
העל
ימ
במע
לקו
##ורו
ער
##צית
דמש
פה
ומד
נט
ע"ד
במת
אינ
חטאת
אסורה
הקדש
כתובה
##ונתו
ראשונה
ברכת
##דרין
##יקרי
נ"ל
##יכם
ועי'
א"א
טפ
תלוי
סעיף
פסח
##ברה
בתח
ושם
##כ"פ
##גם
דילמא
##רס
##טריך
דאל
##ורע
בעיר
ימי
רוח
ויו
בשאר
##נתו
ראה
##צרך
שאלה
באיסור
אמות
##ועות
##יפא
לקבל
##צם
המשנה
פל
ואני
##שבו
לאסור
אמרה
מצו
##ריפה
דבעינן
כדין
##"ץ
##סתם
##ולים
קבל
לפניו
ומע
מהו
דקתני
קיים
##קיים
מפורש
אולם
##כיל
בכו
תוך
השל
תמיד
לכתחלה
מאן
כולם
אליעזר
##ותיה
מועיל
##ליצה
##זקה
לטע
רבו
ובת
דומה
##יטא
##כרו
כמש
ומס
שמה
במח
כדאיתא
למו
דבה
ממנה
הגוף
ביש
וממילא
השב
בס'
##דת
נוטל
##נע
במשנה
נשים
ושל
שחיטה
וט
לדון
מנהג
ולו
המא
לר'
##ביר
דהר
##כשיו
דרבי
ראו
סמ
ויד
פנים
##רבי
ולכאורה
עשר
גוי
שדה
שהן
קושיא
לידי
שהק
לצאת
פני
חלו
פש
צ"ל
אכל
רגל
לפס
עכו"ם
##ורר
##ובין
##יג
עדיף
חטא
ענ
##פסיק
##פריש
זרע
##מדו
י"ב
השבת
ההיא
וחו
ו'
ובע
דפלי
מקודשת
##חש
בכה"ג
בלילה
מיני
יוכל
##בלי
חלב
חשוב
הגמרא
הלוה
##ילי
##כס
##טב"א
יתברך
במי
דינו
הפק
##שתו
##נהדרין
עכשיו
אכילה
שתה
לכו
##כבים
באותו
במק
הפיר
##רום
##קת
מברך
לאי
ומיהו
שכ'
##טות
לוי
קונה
לעצמו
ומח
כאלו
דבש
##יעי
זכר
דהנה
והכי
יעשה
מלך
הונא
כתבתי
ואומר
בחזקת
קתני
##נג
באה
בארץ
מצאתי
##מצע
##קא
מחייב
שלום
##כנה
שלש
ובאמת
שיק
##ורים
נדר
הירושלמי
ולזה
שיצא
שיב
השתא
##ונא
##דב
##חזיק
דלית
נכון
זב
##ריות
לדיד
בעת
דלה
צריכין
נ"ב
##פן
##ידים
##פרט
אביי
יהיו
וכ"ש
לבטל
##ותי
##חמנא
מוה
##ורם
המוכר
דסו
דתני
עביד
בטע
רצו
איסורא
##ריו
טהור
##טין
ריב
##גת
כע
אונס
##שלים
##נ"ל
בתרא
##י"ל
ביב
##ילן
לכתחילה
היטב
ור'
ועד
ברכות
הגר
דכו
נית
כ"כ
אלע
מטמא
##לאים
חזקת
##מאת
יע"ש
##תין
הגמ'
ישמע
##פרים
חולין
שהמ
##סורים
דשא
רג
כרח
##רבא
בשעה
ולב
והק
החו
יפ
פת
##מיש
ובל
ויע
אכן
##עלים
##לקות
ונו
אשי
דמים
יחד
##זהר
וכך
דיו
בתורת
##סתפק
##שבה
איב
הללו
העדים
וכש
לפיכך
##חיטה
לתת
ארץ
סק
שור
תנ
יו"ד
##יאה
יוש
ולמה
הש"ך
מסו
##נסת
מדאורייתא
צ"ע
דצריך
##ינין
ע"ג
משלם
דלמא
דקיי
להשת
ממע
כ"א
תני
שלמה
וקשה
חנ
עבר
אבי
פעם
ר"ת
##פרשים
אמה
תחלה
צורך
דהש
##גא
##תוספתא
לכם
##זכיר
למש
לאב
אלעזר
חזר
ומר
כיצד
ומשמע
חכם
##וכל
שלה
ח'
##רם
לט
##פרה
מני
הזמן
דמס
ה"נ
לסמוך
דהאי
עת
א"צ
דאפשר
דמח
ביניהם
דאע"ג
כולו
לצד
##בוש
שהקשה
##יית
מבר
דמת
ולמ
##וקים
##יניו
ויאמר
##ריס
שעשה
מהרי
סמוך
שאסור
כזה
בשני
##כחת
שכתוב
דמאי
שות
מפי
שיכ
ל'
נחמן
יור
##יקים
ט'
הראשונה
והב
ללמוד
להחזיר
מה"ת
נינהו
בדיעבד
הב"י
סימ
שאף
גובה
##רבו
בכלי
ולפיכך
המלוה
הבה
##מחה
כלים
לשיטת
##צאה
מעט
##ניתין
נכנס
מלוה
גזל
השליח
אוסר
בשא
כרחך
מרא
דתנן
השנה
לשא
##לן
אינן
תעשה
נות
הדר
ראי'
שהיתה
##קרי
חז"ל
##עם
למטה
בבר
##רוצה
כרבי
ודברי
##נך
לקנות
ושו
בנ"ד
ספיקא
##כהנים
שלי
תלמוד
##רח
להצ
הכהן
והרא"ש
שז
מעיקרא
דחי
##לינן
##תבע
הוו
##יכר
י"א
##טלה
גמר
יהי'
מילי
א"ר
בעד
מקדש
והלא
קושית
שהי'
לחבירו
##יחיד
הפסח
כעין
תמה
מנין
##מית
נמ
הדם
להרב
תמוה
המעות
##צטריך
##מ"ג
##קע
מתו
שיכול
מיקרי
##ירוץ
שיהיו
דהכי
ליב
לתוך
והשתא
בש"ס
##רוה
דבעי
שיד
שמי
אג
ס'
חלה
הלוקח
כדעת
ראי
לאדם
בתשו'
כוונת
##ופין
##לוני
בעלי
מתי
להג
##תניתין
בעולם
דחייב
עפ"י
ש"מ
##ולח
ושוב
##יעות
מהרש
דבריהם
הכו
יחיד
ברו
כ"ש
אליו
##ותינו
##ובר
שלם
מצטר
ומאי
ויר
דאת
##ר"י
למכור
לחייב
לתרץ
##קור
##תום
##קדיש
ביר
קני
להקשות
##יבת
הבן
##ביד
פליג
דפס
##בודה
תימא
וראיתי
מלשון
בסו
##טלטלין
##רינן
ופר
אא
הרבים
##ושים
האחרונים
רחמנא
יבא
##פרו
דאז
הזכיר
צו
עז
##טול
##חוץ
הענין
תפל
לכהן
שינוי
רשאי
דמד
טובא
אבא
השא
במים
מיה
##דרים
והג
##ודות
לפע
עבודה
חמור
מותרת
ולק
##ילתא
שנתן
בהנאה
ובכל
##שתה
איני
ואסור
גמורה
שחייב
שהש
תת
האיש
למקום
תהיה
שיאמר
##בש
רואה
שצ
והכא
מוש
דכי
##פסל
##יחד
שאינם
חב
הקרקע
צי
שאומר
##שלם
י'
##חוק
שפירש
הנזכר
קדושין
בנים
##קדון
נז
##ודי
נשאר
ברייתא
נחשב
דשם
קדו
##אונים
##כסים
אהרן
קנס
סבירא
דמותר
נזק
##פטר
##סרו
##מותו
וכיוצא
ומשני
האמת
הרמ"א
מין
עול
##פוקי
שאל
הבשר
##טלו
דלד
##ז"ל
וה"ה
##רוש
##כינן
עבוד
שמן
##ותב
##עלות
אצלו
##נק
בידי
זכה
אלהים
לוקה
מחלוקת
##פוס
ואמרו
##פסיד
##סתמא
ובג
הרע
ירא
##תובות
##פשיטא
וני
פוס
העם
מדבר
חכ
##תחיל
##לקו
מאה
##ידך
להן
##ולב
שכיח
שומר
ביתו
וא"ת
##עט
##ינוק
מוס
בסוג
מהלכות
מחי
למפרע
נשת
##צל
גופא
אחיו
מצרים
ב"י
החי
ומא
די"ל
##כוון
##צטר
כזית
כשהוא
##נהו
חסר
וכא
##משך
יאכל
ביטול
המקום
##מי'
זצ"ל
המקדש
נשבע
דקד
##רבנות
קמ"ל
##כסי
מקצת
שיטת
האלה
תפילין
שהח
טריפה
ומכל
##ירושו
ע"מ
##עלת
שבעה
והס
לארץ
מקומות
##הוא
המצות
ונא
לדחות
##קנו
ארבע
ואלו
##צרים
בסמוך
גוונא
##ולו
בעיני
אכתי
דקרא
יכולים
באומר
לחם
##רנו
ואולי
כשרה
רי
דני
בקו
תאמר
משני
התנאי
וע"ז
מום
ושא
חולק
דומיא
הזאת
מנת
ע"ה
##וח
הכנסת
##ב"ש
לבו
י"ג
##ישנא
##ינות
##מעון
גרע
##דיו
##ליף
קטנה
לה'
לשונו
בדעת
בהגה
כדרך
הקו
אתא
כרת
וכה
כוכבים
##רישה
##ר'
ברוב
##בעו
דבאמת
##יקח
דבע
שדר
שמח
##מ"ה
י"ד
שער
הספק
##מיר
ויח
שליש
אחריו
##ידין
יתן
שלח
מיעו
קדושה
##יטתו
דבמ
##גלה
קורא
מכש
קדשים
להי
עקיבא
הברי
##נש
ממקום
איפ
טמאה
מ"ט
##מנם
באח
##נחה
ואיך
הור
נפל
ר"ח
אנשים
עושין
ר"א
##ליק
##תימה
לרבנן
ובד
ודוק
##ודר
נזיר
הוצרך
דייק
לרבי
כדאמרינן
ישמעאל
צריכים
סברת
מזונות
דשאני
מרובה
##פע
בכור
##זרת
מעלה
##כתו
##ואות
שבש
לישנא
להס
##חוט
וע'
בריש
מגו
תורת
מכלל
מוכרח
סוכה
המחבר
כתובתה
הגוי
דלפי
ואילו
מפק
גבוה
שלשים
##יבות
והח
למר
חצ
##מינן
##פורים
ויב
ס"ד
דרבא
מצה
עבירה
האומר
שליחות
נדה
חשב
בגט
וק"ל
דקא
דר"י
פלוגתא
באמצע
יכולין
עלמא
עליהן
לשמה
הלכות
לפר
##סורי
##גול
##ירושין
ולומר
גוף
הילכך
הבעלים
##גים
והל
ליתא
משפט
שומע
למח
##פון
עמד
עץ
##תבטל
דקי"ל
הולך
התו
##בול
##ושיא
מערב
לחומרא
##כרח
אמרי'
##כתוב
ת"ל
השמ
וצ"ל
ורבי
מהל'
דעיקר
##מינו
מיגו
קנ
והרמב"ם
קדש
בימי
לוקח
בספק
##קדים
מיוחד
ילפינן
##ודא
אעפ"י
ובפרט
קדושת
שאנו
לאחרים
##יכן
ובח
קבוע
נכתב
ניכר
טוען
במר
ושב
##ויי
לאיסור
אפ"ה
##זרע
##גין
לקד
המעשה
דמשום
דיני
וחייב
דאל"כ
והרב
הלכתא
מיב
עור
##ב"י
##לאכה
##ידושי
##דומה
לבא
ונתן
מוחזק
##יבל
דאיתא
הגו
ומותר
לעמוד
ידיו
כהנים
##כחה
ודוקא
##מ"ע
וליכא
##פשט
##ואים
נודע
הלשון
שבועת
קרו
היין
אזלינן
דמהני
כה"ג
היש
דאיסור
לשמו
דבת
מעכב
המנהג
מור
##כרים
##ואו
דמתני'
##ילוק
עי'
הריטב"א
מש"כ
##ושת
מבטל
י"ח
הוציא
##שיטות
##סין
תקנה
א"ש
ולהכי
##ערה
##לין
מדבריו
מצוי
רצ
קי"ל
##ביי
##טהר
##ילים
##פוך
טעות
עבור
אתם
הגיע
פרע
##רעא
##כירה
שביעית
##ערב
דעלמא
?.
בעצ
קכ
ארו
קיימא
הביאו
ואפ"ה
ואינה
להוכיח
דפליגי
##שלח
רשע
לבן
ר"מ
העד
##זרו
דבכל
בפי'
##שרות
כ"ז
לבאר
בלאו
##דדי
ובפ
אולי
##ועל
לפנינו
##חלקו
ושפיר
##דיון
דלעיל
בבה
##שב"ם
תנן
יכולה
פסולה
מלו
ועתה
דבי
והיו
##יכות
ביאה
ואיכא
למאי
והאי
קס
ארי
##נשים
ולפי"ז
בדבריו
##מתי
חצר
##כונה
הלו
הותר
נוס
מלח
גזרו
בצד
מעולם
דווקא
דינ
##דולה
שהב
מלכות
##שב"ג
פ"ב
גרו
שנעשה
למאן
דסבירא
ט"ו
עירוב
רובא
בנדון
הב"ח
דהיכא
נאסר
לזכות
בס"ד
##מעט
ומצא
בערב
בישראל
שהג
המגיד
##תון
הייתי
##רונה
האמור
ח"א
מספק
מות
במסכת
##צור
הויא
##פח
##כניס
הפקר
כוונתו
רחוק
גופו
הלכך
קש
לר"י
בב"י
כולן
כשנ
נהגו
מתניתין
אנן
סתמא
המרדכי
##וייב
דנא
הפירות
ומעתה
גופיה
לעת
ממת
ושאר
לעני
שנשא
##חזור
דמר
שיהי'
הרוב
חדשים
רפ
לענ"ד
בפסח
חיו
##עיר
דבלא
בכול
חנו
בדיקה
##כלה
##דייק
להבין
גל
דהמ
גיר
קפ
ואמאי
##תות
הקשו
בפשיטות
מלתא
השמים
לתו
והרא
הים
##נתן
אמרי
להמ
דלענין
ולענין
##פול
שאי
שתים
י"ט
דיכול
ארבעה
הכלי
סופר
הגאונים
##גון
גזירה
בעלים
הבהמה
הלב
תלמיד
##דרי
ברב
כדכתיב
דוחה
בפניו
דנה
לקרות
הדעת
בפ"ק
הרג
היאך
יז
שעבוד
שאפילו
לתקן
לאש
ביותר
##ידש
ראשו
##ייה
מקודם
עשי
בהלכות
ועשה
ומק
בקרקע
עמ
##למד
יתכן
אמ'
הגז
##קוה
מיח
דתניא
##מש"כ
##פירוש
חפץ
דשמא
יורש
הלל
יונה
האל
##באר
לאשה
##זא
##ראוי
בשום
הט"ז
##שו"ה
האש
אכילת
בעדים
ככל
המס
אביה
##פנים
##יימו
שפסק
תנו
טל
גרס
טפחים
באחד
להח
שמותר
הדיו
##כנו
##יאל
חלקו
קנו
תלו
קמי
תצא
##חית
טומאת
##ורשים
באותה
ודלא
##שלו
להניח
דצ
טענת
צדקה
שבח
אבד
גברא
ופירש
להוסיף
עמהם
ר"ש
נפשות
שנמצא
שנראה
אמור
פ"א
שהר
וכאן
לדקדק
##טת
וזו
ואע
מידו
חוששין
##מיו
עסק
בלב
יומא
##סרה
בראש
##גות
בי"ד
סב
##מעת
שמש
קיום
##ולך
ורבינו
##ודיע
וכתבו
לדין
ב"ה
שעת
נדרים
##תוח
##ורשת
##טרא
הברכה
ימצא
אטו
נכרי
שאינן
השדה
הרש
כק
אמרת
טענה
ביאור
בטלה
שטה
ממזר
מזבח
במאי
##נינן
פוטר
סי
לשל
בנות
##ירושלים
ס"ס
##ובע
נכס
במתנה
משכחת
לגבות
##תובע
אדו
##ושא
גיטין
היד
צדק
שבה
ס"ת
מורי
##ושי
לקולא
היות
##סם
##כירו
אמן
##שיך
חליצה
ל"ש
ולי
תניא
במ"ש
להתפלל
מעו
הבר
תפס
##פלו
חייבין
תרתי
באב
##צח
א"י
בתרומה
מייתי
מרב
דנקט
חסדא
##שיל
##נחות
##מרה
כוותיה
##טרה
סה
המזבח
פפא
שאפשר
##מ"ק
##עוט
##דק
נפקא
בברייתא
מהר"ם
סכנה
##לאה
ונ"ל
מועד
זרי
והן
עצמן
שלהם
##כאן
ואד
מדת
##שמים
כמאן
פרוטה
למעשה
וע"ש
נכסי
##עודה
##כרת
ולית
ולאו
ויל
תקנת
בחי'
שכתבנו
בדברים
ידעתי
השיב
טובה
,.
לבני
##סן
ויק
המד
##יניה
בזו
לדינא
##מ"ל
##זונות
דשו
המי
היוצא
דשרי
##זיד
לראות
##סות
להעיד
פירושו
ל"ה
ט"ז
ממ"ש
בתשוב
לשנות
##שתן
##פורש
כדאמר
מוציאין
בכמה
גרי
ויצא
מקשה
צדיק
ושמא
כופין
האור
##צין
אילו
מאמר
ברשותו
בדיני
וכתיב
השי
##מול
אגב
בחד
הפסק
ליטול
בעין
הראוי
##ריתות
סופ
מדעת
לכ"ע
##רין
פסוק
כוס
ה"ז
קודש
העת
זהב
להאריך
דלע
לשב
עצמם
##ייהו
הטוב
לישב
התירו
קע
גמ'
בשו"ע
##מרת
ספ
לאפוקי
##תומים
מה'
באונס
לאוק
בכדי
קר
התב
חובה
דאמרי
תחילה
##ילתו
וס"ל
בהג
ומזה
##ייע
##ובד
השכ
לרבות
##למיד
בגוף
ופס
הדרך
ומכ
שהס
##צוות
##גום
##גדל
חייא
מנא
דרי
בחצר
מתירין
עצם
ותירץ
דפסק
והקשה
דיב
##שוי
מ'
באר
ר"ה
תשמיש
##שאה
##נסה
והד
דכבר
הגה
##בוע
חסרון
גדולים
בבת
##שן
##יקת
נזכר
אסי
##מנות
מנו
ורבנן
והטעם
אימא
באין
מרע
גור
דהת
והשיב
##תחלה
מבית
##ה"ר
פק
שנית
עין
במקומו
כותבין
להכי
תפי
##ביה
דקאי
##סקנא
א"נ
ח"ו
##יכו
##שואין
שביא
##לע"ד
אבות
ידים
לאיש
הימים
במג
ואו
עכ"ד
נפשו
מאל
##נור
נתחייב
##ירצו
##כלת
בסתם
דידיה
מיהא
##צץ
שלנו
##עלם
##פילין
ודבר
להלכה
מרי
##ילוי
נכסים
לאכילה
רבנו
##צאי
אלי
כותב
חברו
דאיירי
הניח
בכתב
##פי'
לישבע
בש"ע
##ודים
תפלה
במתני'
מילה
##שיג
איצטריך
נאמנת
דקיי"ל
##מתין
דרש
##כשיר
דט
##רצה
##ירוף
ח"ב
לגר
רעה
להשיב
מודים
בהר
דפריך
מתע
הטומאה
דטעמא
דמ"מ
קיי"ל
טהורה
הל'
##כחן
דיה
שהכל
##זים
##סתר
לילה
##לאי
כשב
##מנים
וכ'
פ"ק
##דליק
שבמ
משפ
בחולין
##דב"ז
לבדו
פרה
טבילה
מחויב
שואל
בנה
מחלק
##פילה
מורה
כ"ד
##מ"ד
ירושלים
גיד
הרה
מהאי
מ"ד
הקהל
איהו
מוקצה
ק"ו
מלקות
בביא
ללמד
##בחים
ושלא
ששת
מקד
בעה
##בריו
##מועינן
מלמד
היר
באכילה
גי
תקנו
דמל
##בירה
מוכיח
כר"י
דבעל
בפנים
לגוי
תיקון
יאוש
##שוד
##מלא
מההיא
חפ
אנשי
וה"נ
שקר
מחשב
דשב
ומשו"ה
כלאים
בניו
##יטל
שנהגו
##--
ליו
##ילף
חזי
ויהי
##וקר
אבן
דאתי
כשיש
ומן
סדר
דעתי
אתיא
##גלים
דור
מהר"י
מתחלה
רבית
הלך
##מכתא
מיושב
##זמן
בחוץ
ובעל
בספרי
מברכין
שמחה
##לוגתא
תליא
ועי
ואה
יקרא
##תברא
לבעלה
במס'
בער
##מתא
מתיר
וכנ"ל
נתנו
כ"ג
להשתמש
כמש"כ
הריב"ש
השבועה
המצ
מתה
##קות
ימות
בידים
רמז
##בלו
פט
דבזה
צבור
מכירה
בגיטין
להרמב"ם
##ריכה
העדות
שיא
ביבמות
דהו"ל
תול
הנא
הטע
חר
חייבים
##מיט
דוחק
נ"י
דגבי
שלפ
בגד
##בדו
לבר
הערב
דרק
אתו
הקטן
נצ
קידוש
##לקה
נרא
ה"ל
דמילתא
אומד
וחזר
שחל
דאד
מישראל
שתח
שמות
הלוי
כז
ליקח
##יכף
ופי'
והוה
החיוב
##רי'
שליט
אלף
דהשתא
וסו
לדידן
בתשובת
לבי
##נשא
טפח
בבא
פ"ג
למיחש
קבלה
דשמואל
זק
חלוק
אחריות
מכה
##צינו
וכדא
##צע
השות
הדי
דהרמב"ם
נפק
המוציא
##מס
נהי
##נ'
ובודאי
שאח
לשאר
מעכ
כ"ה
עלי'
בע"כ
החול
מאוד
מאו
##צונו
ושמואל
הגם
##נוס
ומבואר
הספר
כרבנן
כשרים
כחו
לילך
דהך
לקח
אותיות
פרשת
##ברות
##ורתו
כיוצא
##פוק
בב"ד
תהא
וטע
שיל
הולד
ורו
ואמרינן
מ"א
רישא
תד
דפשיטא
##ורף
גמל
חודש
...
לשני
##בוה
כשם
ואמנם
##ענו
דלק
האחד
לקיש
##תבו
לרשות
הרח
##פסד
שבכל
##בריה
הפסד
המק
##נד
רבותינו
החוב
##ודו
##ציאה
לוה
ונה
דעד
חיה
הלילה
שתהא
באשה
טבל
בנין
##עוד
##חורה
חיי
לעצ
בסוכה
גוים
בהש
##ביאים
עומדת
מעתה
##כימו
הטב
##קנת
פוסקים
ברית
המקבל
##פרת
##ובים
כאחד
וקד
##נסו
##דרה
פירשו
לזמן
בחול
##בוי
הברייתא
דפטור
בשבועה
יודעים
בבי
ששה
ויכול
בסוגיא
וכמה
##בורה
מאכל
פרט
סמך
בריה
##תיבה
לאחד
אמינא
##כ"נ
גורם
ה"א
##לף
עובדא
מלה
דאינה
משאר
הבד
קדיש
בור
##קב"ה
בי'
לצר
לפרוע
שעות
דהיא
בשדה
שאתה
##מכר
שסו
פיו
הטו
פ"ד
בהאי
דיבור
##ראי
עובד
##שרים
שירצה
חנינא
ובני
ביו"ד
פסחים
##כילת
##שבועה
ליום
התנא
שכיון
בשלמא
קורין
האר
במעשה
למחר
ברירה
שעבר
הכוונה
כדת
להאי
לכבוד
בבל
בכסף
שבל
ודע
דע"כ
ואילך
החכם
כשאר
שאול
##ענית
דעכ"פ
##ופות
והדר
שעדיין
##פקיד
החמה
י"ז
למשה
##מעשה
סאה
הקודש
לפטור
##גבי
זרה
בהל'
יתר
לטעון
ובשו
לעבור
מוסיף
שלמים
המג"א
ועדיין
יאמרו
שליט"א
##ניבה
ויום
##שאו
נבילה
היב
הר"מ
##לקל
##זרח
אוכלין
וכדומה
כדר
כהונה
דרוב
מנחה
העומד
##חתם
הנפש
##מט
מפר
בתוספתא
##ולות
השאלה
נכסיו
דבג
והרשב"א
##ננו
לרבינו
בתחלה
כצ"ל
ניש
לקדש
קריאת
האחר
דמק
##חנו
והה
בינו
##תר
בפחות
שבר
הב'
מקח
מלמ
##שרת
יצאו
ולענ"ד
ברישא
,,
##יקרו
ד"א
פירש"י
וראה
אופן
ביחד
ולש
למען
לימא
מחזיר
אפרים
בפי
ידעינן
##שש
לבוא
ופריך
תשובת
במד
לישא
##רבע
בדף
ק'
##וין
מעכשיו
##סד
להורות
##שלמא
חסד
##ובי
##מוכח
בהדי
למלך
הכסף
מחוייב
איל
ולפע
דרא
רמ"א
תכ
ת"ח
##בלת
דסבר
דריש
זמנו
צוה
לעיין
קטנים
למיד
מרדכי
ובי
ניתן
ע'
כשאין
מועט
ק"ש
מעין
שרוצה
מרוב
אלמנה
לברר
בטו
וסת
##תיה
בלא"ה
גמרא
למעו
הכהנים
פ"ה
מדלא
מדה
לשבת
אא"כ
##תחילה
זוכה
דמתניתין
המזון
וחד
שנש
שבות
והכל
אזיל
טהרה
להתע
פניו
שבין
##כרה
בעבור
קוד
דרו
יי
##פינה
שמעינן
ולח
הכלל
דלר
אנכי
##לוח
מחילה
לרש"י
נהנה
דאמרי'
##חובר
מסתבר
##רתי
פוסק
כפר
##ד"ם
ירצה
##ירתו
והר"ן
מרשות
בנת
הקדושה
הבאה
עוף
##פשיה
דחשיב
להציל
במא
##ידיה
שיט
עבודת
בכתובות
מאות
מניח
בתי
העיקר
ובית
ותמה
דנין
שניה
שנע
כהר
##מונה
בקידושין
זוזי
השואל
ועכ"פ
מלאכת
##רובת
##נתא
המפרשים
טרפה
בעיקר
##קאמר
שנג
במקצת
לדבריו
בקי
להט
שיתן
בהיות
שאחר
##פ"כ
ובלבד
##לחן
כשמ
בחלב
הפסוק
##בק
נושא
נתבאר
##ידא
ביני
##קומו
אמרתי
אדרבה
גדולי
תירץ
לשמעון
מנ"ל
ור"י
מטה
או"ח
החצר
תם
פרעתי
##זלן
סהדי
אחרינא
דסובר
החפץ
##ברהם
דמ"ש
וודאי
##מורים
בביתו
המל
##חום
הנשים
במצות
##נוי
דרכו
רגלים
בכאן
לידו
##דמה
ויהיה
איפכא
נולד
##טבול
מציא
סיפא
ל"א
שוגג
עלינו
פוסל
מדינא
אומרת
לתמוה
הגל
שיעשה
למעט
##גרש
בורא
שבוע
לפ"ז
לבה
רצון
ומש"ה
סותר
מעצמו
הלואה
##רער
תשלו
שרו
##ויים
##וני
##לחמה
##ולל
##ורח
##כלית
מאת
##טלי
##לאו
דאמרו
סימנים
##כורות
##מירה
לשאול
דלעולם
##תוספת
אהדדי
הפת
מסתמא
באיזה
הסוגיא
ובו
סעודה
שאז
לרבא
עיני
כשלא
שטע
דמוכח
חזרה
ישא
##קדשה
ובק
דטע
סופרים
לפלוני
##סוק
מקור
בקנין
שבועות
##תימת
##חיק
חידוש
הוכחה
יושב
##ולק
אחא
##בלין
סעי'
##ריא
##מק
זית
אליהו
##רובות
יסוד
בהך
##וייהו
לבנות
ודעת
לסו
להעמיד
ויכ
לאה
משב
מעילה
כמי
גרסינן
##לון
ופסק
רביעית
הכרי
##ויה
בפסחים
בהכי
דחו
קרב
נקב
ניק
למ"ש
שעושה
##פירה
##נחת
##ופא
חג
טעמו
קור
##כני
##כמת
ור"ל
שאכל
ביצה
חק
לעבוד
בטור
ברש"י
ציצית
הנדר
##ליפין
מיעוט
כתיבה
באות
##מידי
הנס
הא'
בריא
##טבע
במדרש
##זהרה
איר
שהה
הכ"מ
ידעו
העבד
בנידון
##מנין
טוע
דהלכה
והני
סוגיא
לרו
##מיך
דמא
החמ
תיכף
לאמר
##ושר
חומרא
##עב
##שאל
מיתת
בגדים
בדא
אמי
ולת
מדכתיב
לפסוק
##שהו
נזירות
מדר
##טנה
מכו
בשוגג
חתיכה
שראה
סברי
למעוטי
בלבו
קפיד
תשוב
נבלה
לשום
קבלת
במזיד
שחו
גאון
חולה
##יעא
בגדר
הישראל
חמש
עליך
##רש"א
להלן
מיום
שהקשו
##זין
הער
כ"ב
עבדי
##גדו
ריח
ב"ש
מלבד
##נון
הבת
קבע
יליף
בה'
אחי
זר
##בטל
מחזיק
##מדה
אבה
ולאחר
להיפך
בשתי
שכך
דיע
טובים
אבינו
בפרשת
כעת
פ"ו
חובו
מחיצה
בלתי
##פיס
דשבת
מטלטלין
##זות
ורבא
יביא
דרבינו
נותנין
חבר
##ת'
הוכיח
נתינה
בפסוק
נטל
נוגע
לזו
במינו
עשרים
לפמ"ש
מודו
##יתומים
אסורין
ערוה
נעשית
באדם
עי"ש
האות
##ח"מ
נטמא
שיס
כתובות
המקח
אנא
לאור
##שט
לעיר
שוין
האוכל
אסמכתא
לידה
בראשית
בחיי
##פירות
הנותן
לולב
מבני
כ"ח
מזיק
קלי
העכו"ם
שנתבאר
##זבח
חמשה
ברורה
יעלה
אהל
מחל
ויא
מהמ
שבאו
נ"מ
ומפני
בכ"מ
נפר
לפסול
הראש
בליל
##צטרך
למית
כונת
##ינתה
הוק
דרש"י
עצים
לחלוק
כולל
ואחת
תימה
דן
תמצא
##פקר
גא
הגדולה
שמר
ליכ
עמי
אסורים
שאו
ששמע
וטעמא
דחיישינן
צל
##זב
וה'
דנראה
יהיב
##נותו
מהש
דהיה
##לוהו
##ידנא
גמליאל
הקנין
הרגל
מסיק
דאכתי
שנשת
##ובדא
לעדות
זכו
נתע
הנך
##ביו
ל"ת
דבכה"ג
כבודו
התיר
##גדים
דלכ
מספר
שהנ
##תונה
##ונו
באש
##יכת
##ר"ם
שלישי
##יס
הסברא
דפליג
כפרה
להרא
##לוש
##בריא
דכש
חכמה
דהע
יצטר
בפ"ע
דבס
היחיד
הנכסים
מתכוין
למחות
##קון
אלפים
שכרו
ושת
יברך
הדיוט
שאלו
##פתח
מעיד
שיוכל
לשמוע
מינייהו
##עא
החת
הקושיא
עיניו
ומל
נוהגין
ויותר
##ניחא
בב'
##צב
שפי'
מבחוץ
##סיף
##פשו
שזהו
תפלת
דאיהו
הכות
הר"ש
מדבריהם
נתנה
התרומה
חות
הר"ב
הקידושין
שופר
לפרו
ר"ע
דנו
תוספת
הבל
מוצא
מקומו
ששו
וחכמים
ומפרש
פסקו
חובת
תחתיו
התשובה
מקנה
הפני
##יקש
מגל
הדור
להזכיר
##טח
גדר
יבמות
##חיצה
שוחט
שהאריך
דהל
להודיע
עפר
הכלים
חזינן
##כשר
דבד
שערות
דלכאורה
יוציא
מתחת
תענית
תאכל
בתוספות
המקו
מחבירו
יקשה
עושים
החיים
##גיגה
מוקי
זקן
ה"ר
לאשתו
שאע
דהק
באים
ב"ח
##יוחד
##תניא
שעשו
הובא
דיין
לבין
הפרה
כולי
בסנהדרין
וז"ש
אדעתא
##דור
ונש
הר"י
הנראה
לבטלה
דנת
##נטר
שהבא
ונעשה
מהך
יבוא
נגע
##צתו
לבדוק
##תיך
בחי
##ורב
העליו
אצבע
##פחה
בינ
שיטה
כשיעור
##ינוך
ובנ
##חץ
ששם
לגרש
נשב
בהיתר
וכאשר
##ירסא
וי"א
מפס
##ותח
ספיק
השמש
##זקן
לעכו"ם
דנהי
בממון
האחרון
פרש"י
מצוות
##נ"ח
באת
נוכל
##רומות
אק
סנהדרין
דזהו
בישול
ראויה
יוד
ושה
מהימן
לב"ד
##מונים
דר"א
שהוציא
שטרות
בכי
דסתם
פור
##עי'
מחצה
דמעיקרא
תופס
יעבור
הכתובה
אדר
אהא
ערלה
למת
##והר
ירושה
ועיקר
עמך
##מ"ז
מובן
אסרו
תירוץ
##וים
ששים
שנפל
בבהמה
בא"י
נר"ו
הדחק
ואתה
##נותן
##לאות
בכח
##דן
דמבואר
כלה
ובב
וא"ל
הטה
חו"מ
זקו
חייש
שיבא
מגורשת
ממונו
מפרשים
מהג
ליר
מתחילה
הרואה
נחלקו
הממון
##ויין
##ציאות
ל"ב
##כהונה
בתרי
נתח
##קונה
פסיק
לתב
הכשר
דאילו
וכפי
הנש
##ימנא
##ידות
##זכה
##מעתין
ולדעת
בההיא
##חב
חרי
במדבר
בתים
בשמו
כפל
בפה
##לתר
היזק
##כבד
חרס
וכמבואר
לערב
##סתלק
בדעתו
##ברין
לפנים
מ"ה
לאשמועינן
תלמודא
##פלת
ודין
אישות
שטרא
לשחוט
הנר
מ"ב
##ריב"ל
וביא
להסתפק
כשי
ממני
##כ'
בעיא
בברכת
שנקרא
בעצם
לשמור
אפו
קרן
יבו
ופירש"י
לתלות
הוסיף
שתו
למילף
התנה
##יעותא
שאלת
דלת
לחלו
שתהיה
הפתח
לחדש
נשמע
דאח
##ובת
וקאמר
עשוי
ראשונים
עמוד
איכ
קים
##כירות
הנקרא
והטור
מעי
מסייע
ועבד
שינה
וכו
חנוכה
בפ"ב
באם
בחינת
במקדש
העליון
בעדות
הק'
ופשוט
ואוכל
אחרונה
מכיון
איברא
הפרי
דברייתא
ברמב"ם
##נהוג
ומוכח
כיו
כראוי
במצוה
מחיים
העלה
ה"ג
להפריש
סמו
בטעות
##מני
בשע
לאותו
לראובן
חיות
הדמים
הודאה
וקרא
סומ
קרבנות
הריני
פדיון
באל
##וסין
שמאי
##לה"ה
וירא
אביהם
##ט"ז
##ציצית
ונוטל
משעת
צדיקים
דעבד
מקפיד
לעכב
מיא
דרכי
כריתות
שכירות
לעו
התחיל
##גרשה
דמיא
העולה
לאוין
נתי
הצבור
##זירת
שנולד
בענ
הנח
##משמע
שראוי
שדי
ויוצא
דלמה
והו"ל
שוים
האריך
חלות
ההיתר
הרוח
לתח
לשתות
ליל
##בדיל
ברגל
##סקא
##פ'
כדמוכח
שבעת
שחר
מדעתו
להפק
##שוטו
רכ
ל"ד
ומצ
מול
התע
שנינו
##טרת
חומר
ליט
קושיית
הלחם
##ריכו
ביין
הנמצא
ועומד
מראה
בידם
ישן
שבעל
##שיות
בכות
ל"ח
ירק
##צרכו
##דרך
##חטו
מאתים
ישוב
ומביא
ממי
העני
כיד
##יבו
##פשר
אזי
השחיטה
וכמש"כ
התובע
##נתי
אשם
להכשיר
שו"ת
בבשר
##ריכות
נפסל
למלוה
להכרי
ורי
ולבסוף
כיס
נאכל
##פירש
ית'
בעו
פן
דילפינן
ירד
רצונו
הדא
הטבע
לפניך
##בלים
החזקה
כמת
בנכסי
ניד
##שונו
יחזיר
אילן
בדר
לבסוף
התפלה
ממונא
##עון
##לקא
פ"ז
##שמיש
ירושל
שקנה
לכו"ע
מיבעיא
ביאר
עלייהו
לוקין
כתבנו
לבע
אומרו
ובכ
##צתה
לפי"ז
לאלתר
סוטה
##יחוד
בתחילה
ונותן
בביאור
דהג
##ליך
לאוקמי
מצטרף
קיימת
חולקים
עבדים
בהד
עניים
שרב
דפרק
סל
מוע
הראיה
שקד
מ"ע
דההיא
הכר
השמשות
יחזור
נאמנות
לטלטל
ושני
##ודת
אסר
##מוז
חרש
##יטור
##שב"ץ
התק
החדש
דגר
והבן
כוונה
דמייתי
הגר"א
##לקת
##רבעה
הכח
בברכות
מתחייב
מהרש"א
שמעתי
ממונות
בנדרים
תמיה
מעוברת
##מאירי
##רומת
##ושט
פרעה
וכשה
כמותו
הבתים
מונח
ארעא
בקול
השוכר
כיב
##נה"ג
הרדב"ז
בתוכו
ל"ג
בקיא
##בלע
##נ"י
לכאן
##דיוט
חורין
טרי
יקח
##יעתו
איסורי
ועכשיו
##ה"כ
בא"ד
##סיק
##שע
תמוהים
השר
עבדו
משלו
יעשו
##זלינן
אומדנא
דעביד
מתנות
הרמ"ה
ובלא
בדו
עון
ונות
תג
באורך
ליהנות
כ"ט
##טנים
מובה
##פלג
נהרג
אוה
תירו
ונד
בי"ט
האיך
הכפורים
דינים
דדעת
מפסיק
והתם
ציבור
הנאת
משקה
נברא
הפרשה
מתא
קיבל
מצטרפין
בידה
המתנה
ברם
להך
כולהו
התלמוד
לגרשה
דה"ה
##ולהו
##ע"ז
ואינם
וע"ע
שמכר
##יתן
הכוס
ורש"י
החלב
להשב
חכמי
לחייבו
מומר
תדע
בשנה
##נשי
היסת
##ירור
ולפמ"ש
הסמ"ע
נשאת
##זוזה
##כפר
מותרין
הבאים
בעיניו
סבור
##עתיק
דבק
##ולדה
והפ
בתחלת
##נתה
משקין
והביאו
##ירושה
ירמיה
ונשא
שפת
צער
מגילה
פ"ח
ובשו"ת
לנכרי
ספרים
##שליח
ירושלמי
שמצא
לחוץ
דדינא
וראיה
והי'
##ייס
לקר
למצוה
נמשך
שחרית
##דאורייתא
ירוחם
השולח
חדשה
דאביי
ללכת
כ"ו
דכאן
##סיא
##טלטלי
##סח
##כלל
##ריכין
כמות
##פיה
בוד
##פרא
נתב
הקרבן
מסתברא
נוהגים
דבשלמא
##קתני
לעלות
צור
דא"א
דמפרש
וכנ
למדנו
מינו
##ג"א
העוף
ריעותא
שלימה
חלוקה
ערו
להני
לר"מ
##שונות
ארבעים
שנכנס
##נט
חייבת
תינוק
##חלין
##תייהו
##ליג
עיון
נוטה
השניה
##כנת
גירושין
##ריעה
להב
##פקד
ועם
הנתבע
שאמרה
##בלות
אשכחן
שנא'
##יתת
התקנה
##ולן
ודבריו
מחדש
רבות
##סוד
שבט
מוטל
דקיימא
מתן
דספק
זי
בהי
לפעמים
ראתה
שופ
שמביא
בתנאי
שכו
וקיי
דעתיה
ל"מ
גלי
##עבוד
הוס
##צאות
משנת
משכון
אנחנו
שזו
הכרח
ל"ל
ולשון
ומסיק
התר
החל
כלם
הרשות
וידוע
שע"י
ובספר
אחרונים
זוז
דר"מ
##ציאת
ביומא
##כחיש
##איסור
הזו
לפניהם
##פירש"י
##נאו
בד'
לשיטתו
##גן
השור
##ולדת
נופ
המלא
וכגון
חצות
##חייב
פועל
ואית
בברכה
##צרות
ולר
שחט
שפס
##משנה
##ודאה
וחי
##יתם
אונאה
בג'
ההלכה
רס
נכו
ראשי
צבי
הבנים
להמתין
רבותא
האסור
שמק
בגל
שביארנו
סמכינן
ואב
ותוס'
נפשך
מקיים
מצר
וחומר
הוצאה
לשליח
המדרש
מלת
נתינת
צורת
##זירה
בחלק
דלקמן
בשוה
##זן
צמר
##מוכר
אלקים
ואחרי
דיעבד
צ"ב
בר"ה
השמי
זולת
גוד
##ידן
מתפלל
מהרא
נשאל
הג'
מעמיד
יהודא
להדליק
רואין
ישב
פרס
##ורשין
ואתי
זירא
וישראל
רגיל
ותח
##נטרס
##גלי
##תיים
תן
מחוסר
יועיל
מספיק
והלכה
זא
הודה
מתק
גזלן
השלישי
##ואת
כדתנן
##שרף
##רובים
תפיסה
הסכים
חולקין
##ניתא
דמן
ותה
##יקון
מעשיו
בך
ב"ב
##ושו
שאדם
דבנ
##טהרה
מד'
##טרופוס
לטמא
הנביא
אינשי
יבום
אוק
משיב
צא
אחרון
במלוה
##ען
ערוך
דגים
דמסתמא
היורשים
השוחט
בידך
ומצאתי
גרמא
##פ"ז
אבידה
כלפי
בבח
יתירה
בסעיף
בדק
אתכם
ואש
האנשים
ס"א
וא"צ
סביב
ובמה
ונק
##מרם
במתניתין
בקרא
##שבון
מ"ו
מעותיו
##כיו
נפטר
חולי
טמאים
מדוע
דפר
##יטו
שלך
##ושב
והתוס'
בלח
תרומת
דשייך
ויקרא
תס
##קשינן
דאו
##מלית
בעה"ב
בטומאה
##ואב
טעמים
שלפנינו
רז"ל
##למודא
##ריאה
ק"ל
##גרת
בהת
מסירה
##זרים
פסולים
##גיח
ככר
ממעט
##נאת
##חזי
בחידוש
מגיע
חלל
ס"ט
והקשו
מקבלין
##מ"ח
דמצ
##כתבו
##רוף
ר"ג
עדיפא
להול
ופרש"י
וכה"ג
המשכון
יט
##ואי
יתחייב
שאוכל
ומכאן
בקר
גופה
המשפט
בספרו
ופטור
##משה
מסר
##שאין
ערבית
לעתיד
המנו
ואנן
רשב"א
השער
נפשיה
ואדרבה
כמ"ד
שנות
ההי
והניח
##מעו
במל
שמעת
תוק
בזה"ז
##ימנים
דאיך
מהד
ר"פ
משועבד
ללא
##מוש
תוספות
נערה
מטבע
בגו
דאלו
הקודם
וחוזר
גנב
האילן
שרצה
##טלית
לפענ"ד
נגמר
דהוו
הותרה
רבן
##וקה
הסעודה
שנוה
המועד
ראינו
##טורים
הנכרי
החס
למצ
מחשבה
##שיר
ותי'
יתומים
המזיק
דכן
בכר
פקדון
צע
האדמה
אדעת
מתורת
##וה"ק
בשאלה
##עלין
תשו'
ידיעה
##גביה
היתומים
שורש
יבם
לבנו
דר"ל
דכתובות
##ציו
##יננו
כהנא
ויראה
##ורד
השלחן
##כאות
בשמים
לבעלים
בפרה
שיג
החמץ
עברי
מחול
##רוס
יוה
בגופו
וסיים
סד
הדשן
דאיסורא
##שלומין
ויתן
השנים
קלא
חנם
ללוקח
השחר
בשח
לק"מ
##מוס
בטב
מתים
דמצי
בגדי
מוקמינן
כר"ש
רשב"ם
סמי
שסובר
אלהיך
קו'
דדין
##גייר
##משים
##חרים
ונע
להחז
לביתו
למידק
לקרא
ערך
בשנים
נפס
ישת
##שיה
##ילמא
סתירה
ותב
קה
דע"י
והרמב"ן
לאל
זכי
לפירוש
זכור
בשכר
##כיה
דגרס
להחזיק
הית
לדו
כונתו
בקדושין
##לוקה
שקבל
##וליך
וכ"ה
עונש
דשל
##כבה
##מרדכי
##מוק
תלתא
שהגיע
ממך
פתו
כופר
דליתא
##ישית
מעת
ואשר
שומעין
בשביעית
מוהר
ותירצו
ברה"ר
##עתם
##יקי
מש"ה
##צרה
##ינך
ב"מ
במנחות
##יוח
ישלם
חיבור
העור
נאמנים
ברצון
נתכוין
להעיר
שאפי'
ס"ב
מקוה
בפלוגתא
בירך
רוצים
שעיקר
והיתה
דהח
באלו
חיובא
המיוחד
ולהת
תוב
והי
##כום
##קוט
##ורק
הכותל
אצטריך
##זקין
והשני
דאמאי
בהס
הקול
שיתבאר
משו"ה
השיג
מלאכות
עדותן
##חתו
להכניס
דינר
שכיב
הפו
והלך
בעוד
ילדה
בכוונת
להרי
בשער
בירושלים
הגוים
).
לאביי
##לאכת
כשירה
##יבורי
ואיני
דבח
כזו
בהלכה
אלהי
הוחזק
שמונה
שדהו
למא
דדברי
שיודע
בשיטת
ובמקום
במעות
גדולות
שנותן
וביום
בע"ז
ודא
מהכא
כאומר
וכעין
אלפס
שא"א
דהני
הב"ד
שנתע
##ונש
תתן
סג
ושמ
מאיסור
דאנן
זנות
והצ
מ"ג
מודע
פסידא
בשמ
כשרות
כשהיא
תי'
##ק"א
הפירוש
פ"ט
שינ
דמצוה
יחל
##ירש
דאה
מנחת
הלאו
מינים
ישו
לע"ז
המנחה
##ואתו
אבהו
חשוד
להשלים
למחול
תיקשי
##קיף
שלד
באור
##לעיל
ליע
##ושית
שהביאו
##בהמה
##ישת
ס"ו
כשע
כסדר
##קשו
שוטה
דנימא
##ויות
##ינינו
דבין
לשמואל
פטורין
לרי
וטרי
נחת
דלגבי
אליה
##דום
לעשותו
האלו
בתב
דית
לע"ד
המטה
איכפת
וצד
ובפרק
רואים
בב"ק
שפחה
##לואה
ולעולם
דעה
אתרוג
יורה
ס"ג
פתוח
##רצ
##געים
מומחה
המשכן
הצדיק
למנות
הכתב
סך
##חור
##עותא
##פרישית
##גש
הפך
##בדה
ערי
דחולין
לידע
לפי'
איסורין
השכינה
מסברא
ואכל
דבל
בלו
חושש
טעה
ומכ"ש
הימנו
##שמעינן
בזבחים
טבע
מתחיל
##זון
בשליח
העושה
המותר
ב"ק
דיח
נחל
המילה
בינייהו
בקדשים
ראיות
קדשי
דדבר
ידיה
עסקינן
הציבור
קרובים
##מיות
רשעים
שאע"פ
נפשי
הטמא
התראה
לדידיה
##מוקי
חור
שמעו
איזהו
מותרים
גרם
מאותו
כשמואל
לר"ש
הברכות
##נויה
שאמרנו
כשת
נ"ט
##ישא
בברי
כסברת
ל"ו
##ריכים
בתולה
לינ
יוצאין
##תימא
דאזלינן
תלינן
דלדעת
תחו
##שיטת
נביא
לספק
ומדברי
גזר
הכותב
ונאמר
משיכה
לעניים
##פלא
שנשבע
פרשה
הביאה
משמעות
ושמעון
זיל
##ה"י
ומתוך
דבור
##זרק
העובר
דרבה
וחת
הש"י
מדליק
וחצי
החמירו
שמירה
מחיצות
מספקא
ויבא
בד"א
##מאל
##גדיל
שתא
בפיו
זכרו
ליזהר
##קוחות
שפר
ואנו
##נותיו
המאור
בסיפא
שבס
דלאחר
נשיא
להפסיק
חמורה
אורח
!.
והראב"ד
ודוחק
שתמה
אדרבא
לבב
אומ'
ידענא
ישבע
עומדים
ללוה
ומב
שנק
ברזל
להנשא
בב"מ
לחי
נמש
חוצץ
דידה
בהג"ה
##ארת
תשלומין
##יי"ש
חומש
נחש
ראשית
השכל
ל"ק
מנחות
בעזרה
לעל
ורוב
##חלים
##ירך
בכתוב
הקונה
יצטרך
אצלי
שאומרים
א"ע
לאביו
ודר
שהלך
כנגדו
מוסר
כשיטת
מחובר
וטעם
מזכיר
דישראל
לתורה
אוקי
##יקא
##כוונה
##ולתו
הגדולים
מכות
##כוס
ח"מ
לנהוג
גרידא
ואולם
דר"ש
טעמי
##נוע
תלמידי
דירה
ליכנס
##דיף
שמענו
הנד
חטים
קלה
##מונא
ת"ר
מלחמה
עצמות
יבואו
##ונים
השת
והיכא
דאחר
שהבעל
דשפיר
סוד
פלוג
וחל
ורוצה
שעומד
לטבול
##ופים
הולכין
מחלל
לתבוע
כר"מ
דוכתי
פקע
##שך
קדם
בעני
##יהי
ועושה
קפידא
עצה
##כ"מ
מהל
תוכל
##חן
שמס
העיד
שקורין
ודי
בכה
##נויי
זלה"ה
מדות
בכלים
וגבי
שתב
בבד
שנכתב
בבעל
המב
יודעין
כענין
החטא
להקנות
לבל
##נבים
בהגהות
##ביצה
רמי
תוע
מס'
בטיל
מבלי
בזמנו
שראו
זונה
נקראת
וא'
כסא
וכתוב
##טיל
##דולי
ישנה
נ'
החזיק
וברי
##כי'
הבור
תיבות
##גלות
דנק
בראשונה
חרם
אהבה
##משו
##בון
חמה
בשה
ביאת
ונח
מלק
שנד
להד
בדרבנן
א"ח
הבי
דיליף
##ושל
רבי'
דחז
איתמר
##ובו
ובאו
לעבד
להקדים
##כיב
שולח
פסולין
בפועל
שפרע
בלע
##שבים
נקטינן
להז
יהודי
זל
טען
וא"ש
מערבין
אסורות
בנד
שדעת
יטול
##ילק
לדור
##יעין
מעצ
המצוות
שלמ
בחידושי
דכמו
מוכן
אסרה
לסברת
בפת
הנת
מלכים
##פיל
בזכות
הנקב
אה"ע
חשו
בחר
וראוי
מכת
דהלכתא
מבעל
דחד
הסכימו
לחצר
פשע
ימין
ויס
ס"ה
נלע"ד
עתיד
מיע
##יפו
##ריבו
##ריד
כמין
שבק
גילוי
נדרו
גרושה
גשמים
##יוה
ידה
לקרקע
מבעוד
דמוקי
נסך
מצאו
##לקים
יצ"ו
##ריקה
קשר
נוק
##זול
אחות
##טרפה
תמ
##ז"ה
משיח
שיראה
שקרא
ומג
בר'
מיעוטא
המאירי
נטילת
מעידין
ההקדש
דבני
וינ
בתלמוד
שמד
הנני
ת"ק
והולך
בול
העץ
נתכוון
##פד
קמן
פשט
בתשובות
##שאיל
דרישא
##צונה
תרומות
רובו
דניחא
הקנה
טי
ובתוס'
שבג
והול
אזהרה
כת"ר
הקרבנות
##יקות
חשבון
המשלח
פטר
##ותרים
הפל
אמורים
ואעפ"כ
החילוק
שבתורה
דמאן
בתחילת
##ית'
##ידשה
##שביל
בהק
שעיר
דא"צ
ספרי
בע"ח
ולמעלה
מימרא
השק
דמסיק
דאס
מביאין
##עבדי
בבירור
לחולין
ושמע
מע"ש
עכ"ז
הבריות
חוט
ישר
מסופק
##ודף
דאתא
##תף
הקרן
דהתוס'
בשלא
והובא
##יבעיא
ים
ליח
יטמא
זריקה
הבע
נעשו
סלע
בש"ך
הדו
נקיט
דעתם
##שור
חששא
שיוצא
אכיל
במחלוקת
מקל
##שוטה
##תויי
##ימנין
חבית
הגירסא
עי"ז
הבכור
שלישית
כרבא
המבואר
לר"א
וקא
דהם
לברכה
יצר
##ישול
סכין
המנ
מבין
המקומות
בפעם
רבינא
##טער
מציאות
מהת
דהב
כפירוש
במצרים
שלקח
תמורה
בנימין
אנוס
העי
בשוק
יחוד
שוא
הדיינים
שלפי
תמן
##פואה
העין
בטעם
-.
הב"ש
כפי'
כנסת
דמג
##סתור
סוס
לכלל
קיב
##צרו
##יאש
ממתני'
בחידושיו
מסור
הנק
##מנא
שדברי
דע"ז
סוג
שהדבר
דמיו
##ביעת
לכהונה
שהניח
מכי
ונשאר
רל
דפסול
לקטן
שהבאתי
סיים
יבש
בתפלה
ואמרה
בנזיר
נסתפק
תנשא
בפירות
הות
ונכנס
כתיבת
בשמן
לפדות
מג'
מלמעלה
לחול
##רעו
שהד
מ"ז
ח"ג
והגם
מתר
גלות
הסת
מכוין
המלאכה
##ניסה
שנתחייב
אותי
הרופא
הריאה
##נאל
סיני
דקשה
##בורים
אמירה
נתבטל
אבוה
והדבר
הצדדים
חביב
בביה
עיסה
אבנים
דלמ
##ינח
בשלו
בחנם
נסת
דברינו
למוכר
מבעיא
##ידור
בכבוד
השבח
##טיח
בשחיטה
דקידושין
נפיק
##ז'
שהזכיר
לשנים
מהב
תבע
המקוה
שא"צ
יען
ולס
הגד
##ודין
עלתה
##חלט
שיעבוד
##וגן
במועד
כללא
לסלק
לכהנים
דחה
##כסיו
##רוק
מעלתו
שכח
דרשינן
ברח
לעז
עליון
מפקינן
העיטור
הקל
חייבי
##פשיט
בצו
קמייתא
בם
לני
וא"א
ולכל
צלי
הצל
נדון
יודה
זרוע
שעמד
שבידו
השו"ע
לתוכו
נישואין
##כתה
##סקי
בטענת
אינון
ונתנו
הוצרכו
בסדר
הלבוש
חמשים
מודעא
הש"ע
חותם
דמלתא
והיל
פורע
מ"ח
שול
קדושים
בפש
נקבה
בחו"מ
גזרה
הקוד
להפר
חלי
רשב"ג
##ש'
רחמים
דאשה
פטורים
מלכי
הפרש
ההר
הלח"מ
הדיין
בפ"א
דהטעם
שנתנו
מטעמא
דלשון
חמא
ודברים
הקדושין
החג
שנטמא
בפתח
כשבא
ופל
##----
ללוי
בחצי
הכתיבה
ציון
דכוונת
רחב
שלוחו
קרינן
לגבוה
שרוב
##מתה
למול
במיגו
למס
בוודאי
ההו
בעשה
מכיר
בסת
המתים
אחים
שבתו
סיי
חופה
##זירות
כאמור
הוראה
ובירושלמי
תיתי
דאורי
מליחה
##עור
##טומאת
מו"ה
לחלל
תיפוק
במרדכי
ריבית
##גלו
דברו
מור"ם
השוק
דייקא
הזהב
כעו
שרג
##ונות
נכונים
##דישו
העליונה
##טיר
דאש
קבלו
במעשר
שמיה
להפקיע
ז"א
ינ
##כנסו
בפרט
##לענ"ד
סופו
למיתה
##חטה
העומר
לספר
הספיק
דילן
##ריאת
חילק
קידש
המשת
בעבד
הגיד
בשות
ה"מ
הכונה
כ"ע
שמתו
##מנת
דער
לדר
אחרות
שבד
בדם
והוציא
תובע
##מידה
##פירת
הסופר
##קרו
להתענות
מכדי
כר"א
בפניהם
שנ'
##יבוד
מכתב
##עמים
מענין
נר'
וזאת
אומן
היכן
שראיתי
נקנה
צרה
דבשעת
##גיש
##סייע
והנראה
המקרא
דבית
ש"ך
והשו
##ימני
שיאכל
ל"ט
זע
דיבמות
צירוף
להקריב
הכבוד
ותא
בימים
ניסן
ביט
דמודה
שהחיינו
##עה"ב
דחוק
דנאמן
ביצים
תור
מסיני
סחורה
לחברו
הדיבור
מבפנים
דקדק
איננו
##רווייהו
בקדושה
אשכנ
העשה
ואעפ"י
ואשה
נאה
הארכתי
##נדל
הכרם
התחתון
נתק
שהאשה
כהוגן
דעתה
תועלת
שהז
דגיטין
##בילה
דפ'
פרעון
##רוסה
וע"י
המכירה
הסכין
##ילוח
נשואין
טעון
ולדברי
מפיו
דעדיין
ואומרים
מעשרה
נקיים
לשוק
דהכל
להיתר
מחוץ
תיבת
גזירת
לפ"ק
חרב
משעה
העבודה
##זקאל
דלמ"ד
מוסף
כידוע
מובהק
חתם
##נינים
ועכ
מכפר
ונס
הסוכה
יבמה
החכמים
יתבאר
לים
בשבועות
תלי
בשלשה
##קף
צאן
כלא
כדפרישית
מצאנו
ליבם
ששי
תחלת
יהי
היק
ואיתא
נשתנה
##דותו
אפר
##רוייהו
היפך
בפ"ג
##טום
מהלך
דעתך
##לחם
ושות
##ותבין
שדעתו
מחזק
מכרי
כמא
אדום
שהתורה
אויר
לד'
גזילה
בהמות
בסכין
אחריתי
שעושין
##שתים
דדמי
##ערות
מכמה
השאר
בב"ב
מער
דא"ל
בים
גבה
##זרעו
תאכלו
ריק
נהר
הכיפורים
##זהיר
##פוי
דתנא
מכחיש
דבב
מלאכתו
בראשון
שקיבל
ובגמרא
שהצ
שכינה
יתנו
דסגי
עשיית
כפול
##קומה
כלשון
##דמן
טלית
ולעשות
##ירוש'
הבין
שרק
שדרך
בח"מ
הוזכר
בב"ח
מפריש
לדעתו
מעליא
היבם
##ליה
##וז
כשאינו
למסור
##מדת
בדי
הדרא
##עסק
בעוף
החכמה
חובתו
לטעמיה
זבחים
דשכיח
##עוטא
לאתויי
איסורו
וקשיא
נתברר
כבד
השמן
ללו
דבמקום
איניש
##לוקו
##ציץ
לטעם
ינאי
דופן
דאשת
דהס
משהו
בנק
כנס
וכמש
שבאר
השי"ת
##בודת
דכ"ע
##פרך
זכיה
צבא
בקונטרס
הבח
נלמד
##נבה
פלגא
גריס
לפו
##נתנו
מהרש"ל
##מירי
גמ
בעבירה
יונתן
להעלות
לקי
המעשר
תנאו
מפסיד
עזרא
שמצינו
יתי
##שירי
וכיו
נתקיים
משמר
סוברים
נותנים
##קירה
בחדא
לפרושי
מטהר
ובכה"ג
##ורץ
שמנה
חלקים
מטע
נאמרו
האומות
למזבח
לכולי
ושלום
יוה"כ
ועשו
הזכירו
בורר
והמש
תולין
כדמ
מחזירין
בצר
האלהים
התו'
##ליחה
קהל
השליחות
הצדיקים
מיני'
דאדם
גבר
במלח
##עבר
##פחות
בשמעתין
יניח
מוב
##תונים
מדקאמר
בקרבן
ל"ז
ניקב
דהרא"ש
קמח
מפור
##מידו
רגליו
דשני
##עיה
חוטא
##יבם
חילול
להוציאו
שתת
להקדש
ומברך
ובז
הרא"ם
טומא
משי
פטורה
ראייה
תקנתא
לפק
ובהא
##תבשל
מהניא
תודה
##נגד
המן
עבדינן
##פסוק
עובדי
הזקן
כהל
ריוח
קונם
שריפה
מיש
##שאת
רחוקה
שחזר
בשנת
מסק
##סורין
שיגיע
נדחה
עידי
##ינתו
התנאים
##צוה"ח
ילך
הפנים
הגא
##חרת
תיקנו
הסדר
שרץ
דכשר
במקומה
מיוחדת
מאליו
נדבה
רפואה
אמתלא
מכשיר
הגוזל
וכ"מ
בכורות
##למא
וג'
נפלה
תקשי
מדי
ומטעם
פסוקים
וההיא
קולא
דקשיא
כהאי
נידון
עראי
ששנינו
המלח
אוכלים
ומאן
כותל
ן'
נרות
##דמי
שתיהן
להגאון
מעש
בפנינו
קושי'
גירסת
עמדו
תראה
תבא
דמשני
עלו
לימוד
שידע
##ת"ד
ומעשה
המעיין
באריכות
לשמש
שהרב
הניזק
לקחת
דכתבו
במשמע
סלקא
דהיכי
מזוזה
חומה
שבתות
דבלא"ה
ויצ
וחר
בחו"ל
דרכים
ולברך
קסבר
דרשו
עה
##ולש
יכ
השביעי
הבורא
המגרש
דמדאורייתא
לצרף
לאוכל
בתה
החמור
##מלך
שיצאו
לדורות
עדותו
ואמו
כליו
פרטי
מהרי"ק
ודם
##רי"ק
לבניו
##וראה
קצר
הגשמים
##צבע
מכרו
בדמים
מהח
המפקיד
להשיג
##יעת
##ל"ת
##סבר
משמ
ידידי
##ירסת
המפור
##בהה
הקורא
ועלה
אחיך
מזיד
אויב
ועבר
##צאן
מסכת
הר"ם
גניבה
טרם
טריפות
לבנים
בתוכה
##ריק
ולקח
##ראב"ד
שיעשו
כור
מומין
דקדושין
לקבוע
ברוח
לחלוץ
הפרק
דפסחים
מסוגיא
כרחו
##טורת
##גור
##פקע
רמ
ידם
מבקש
ההם
##רי"ט
תשעה
##ילתה
יוכלו
מבוי
היותר
מפל
תקשה
##תו'
מצורע
ומאחר
קמיה
דגרסינן
התפלל
נתתי
##פקו
משמיה
קם
בדיבור
##מעות
בטעמא
שזכר
וטוב
##בואה
באומרו
##תחלת
ור"ש
סליק
להרחיק
עוסק
ביהודה
ואיסור
ואת"ל
##מיע
##גלגל
כותיה
אביך
זרעו
איסורים
##צוע
וכעת
התיבה
י"י
ונקרא
לחד
##יו"ט
עוז
קיימי
בחכמה
נ"ד
אחריה
##מחבר
אליהם
ומחצה
##ביות
המוחזק
##רגם
בשינוי
מלאך
פא
יהו
הבגד
אחריהם
##תחו
משך
ר"נ
לפחות
הר'
##כנתא
הפקדון
לעבודה
מעלת
בתש
לאברהם
בעי'
ציר
שנפלו
נמצאו
קראי
וקו
אכלו
הגרע
ושי
פשתן
תיבה
##והי
החתן
ממצרים
בהכרח
שרה
עקר
אלקי
הנג
##רוטה
דטעם
כ"מ
##ולדות
תדיר
כשהיה
מיחייב
בידינו
המכה
ולכ
##מדים
לכוף
##תיו
בפסק
בעירובין
ותש
מצווה
ניתנה
להרא"ש
ולקמן
##בינן
יורד
התינוק
ותרי
לתקו
בתע
שיהו
לקרוא
מעיקר
כשמת
דמחייב
השכר
חתימה
דיומא
בחייו
המורה
רמב"ם
##סוגיא
דקודם
ענינים
להתי
##יראו
##יימה
ביעור
והז
שנשאר
תחומין
עולא
יתב
תולה
עשיר
תולדות
במקומות
רחל
##סתבר
##לקמן
ולפענ"ד
שבזה
קבר
תלויה
סיר
##גמר
ארוסה
הולכים
דחל
##רפא
##נ"ב
עבירות
לבהמה
הכסא
סכ
##נחס
ונפל
נפשה
##קם
שמחת
הוב
מיק
גיט
שקיל
שיביא
הסמוך
במחובר
##נז
מתנת
דינה
מתחל
ואס
בע"ד
לרבים
לאשמעינן
התוספתא
הרבנים
##כית
בטוב
##כד
ועיי"ש
שינו
הקדיש
הגג
##בדל
בחת
נדו
שפירשו
##זהרת
שתיק
עירובין
במחשבה
דעשה
שהרג
##לקט
ומוציא
פד
גרים
שעלה
שנח
דאדרבה
מיותר
##לימות
שהוכיח
אחותו
קדשה
באשר
ורע
שישראל
לכסות
שאסר
שמבואר
טורח
##גוד
##קדם
##צום
##לוך
דהויא
ואינן
שלשתן
מחשבת
העשוי
בראשו
להסיר
הגב
מאח
חלילה
מזמן
##ורג
למצוא
שחת
##סרון
והלכתא
בדבריהם
לדרוש
בריך
דה"ל
הפועל
דסוף
שמשון
שכיר
מעידים
אע"כ
##בחר
בניסן
אשרי
עונ
נמצאת
כמנהג
דסברי
פלג
שכיחא
לברי
מארץ
לראש
עכת"ד
מכ"ש
ביחיד
בקש
סא
##סתכל
##פלין
נותר
בכוונה
באחריות
לפום
הסמ"ג
מהע
שחיטת
עריות
וישב
חשיבא
גזרינן
##דרשינן
ארוך
##יחס
דההוא
וכדאיתא
וכדי
להיפוך
שלפני
דלהכי
ובן
ולמד
הרא"ה
##בי"ה
##לפע
##עס
ממאי
העול
להראות
קראו
לטל
בזיון
ועיי'
##כבת
שמסר
בבכורות
השמיט
נאמרה
כדרכה
##חתה
והאריך
ק"ק
מדינה
דלי
נכרים
מנכסי
שבלב
העתיק
חייל
ידענו
עולת
שייר
גביה
דמקשה
הספרים
והבא
##ברכין
ורגל
וברור
ה"ד
בעזה
נראין
שבועתו
הסמו
וכ"ז
##כרין
בונה
כאחת
שכותב
##וה"ז
לרע
שלק
ס"ח
דרבו
הרגיש
חתן
הקדשים
המיעוט
באיש
בצ"ע
דגן
מדו
דל"ש
ענו
שותפין
מעור
האדון
##ונין
במשהו
כמר
תשב
ואדרבא
המדינה
שותפות
ועמ"ש
##יכורים
שערי
בפ"ד
במצ
בעליו
מאיזה
ותדע
גומר
בזמנה
בנ"י
ובסוף
הנתינה
נאסרה
##פוסקים
לחקור
בעצמה
##וציא
ובס'
מדמי
התנו
##ושן
ובהכי
שהדין
##פיו
הכנה
כדאי
במידי
בביאה
בההוא
##לקול
##שאים
וקצת
##להי
##מיץ
יוצאים
במנין
מביתו
ביה"ד
נקי
##שמי
אסיק
והדברים
לרוב
כדאמרי'
דבהא
ככ
בהע
##פועל
וכדאמרינן
ופשיטא
##שוה
דלרב
##טיב
וספק
##תומה
המ"מ
התרה
בפרהסיא
ושתי
##לקי
לשקר
בעצמם
##קדשין
ובניו
באינו
כדלעיל
##תוק
שהרמב"ם
הפר"ח
דינם
##תי'
יציאת
דדו
מהק
שתירץ
ושרי
סיבה
בס"ק
באתי
עברו
עונה
שהתיר
הפנימי
##שיית
##טרף
ברבי
לבת
מאור
אימתי
לבקש
נוסף
דתל
מהר"ר
לשנויי
חתימת
לעקור
דזו
אדעתיה
מחמ
וז"ב
##ינר
זבח
ימיו
נשמה
חזרו
מדליקין
יבואר
השכירות
שלאחר
חליפין
המהרש"א
##תיבת
מנלן
שמיני
להנ
כשאמר
##מודים
גווני
בחזקה
לסוף
תמי
##יהוי
כרם
דאע"פ
הספינה
עצי
##גהות
כדמשמע
חשבינן
בשבילו
סר
בשרו
##עני
שהקב"ה
אעשה
דלכך
שברא
##נגולת
ביטל
##שוך
שדבר
דגמרא
יי'
בירור
דברכות
##פחת
##טען
לדעתי
כדבריו
##פשטא
ס"ז
מסכים
השיעור
התחתונה
האותיות
נ"א
מבן
טלטול
שיאמרו
##ילנות
קידושי
מהיום
ערל
בפיר
למימרא
##יכין
אליך
במג"א
לקמיה
##הורים
עשא
חציו
דוכתא
דנדרים
גמורים
באשת
ישאר
קודמת
החיצון
שמאל
דמוק
בנש
כ"ת
צריכא
התא
הצריך
מג"א
להתוס'
##גתו
יוצאה
מחשבתו
עצרת
##ליפה
שבעים
העו
שקל
ניכ
בריאה
בהגהת
ביארנו
##ריהם
שאור
ההש
במלאכה
##צט
דדי
שעורים
המקור
ומרן
במזונות
במוצאי
שנפלה
עירו
ירדו
אבילות
ויעו
וכ"פ
אילי
בכזית
תכלית
תבואה
בציצית
להתירה
כמוהו
אירע
בט"ז
בשיטה
בכתובה
במעמד
סימנין
בסוטה
מלוג
ליור
הורה
חן
##מכו
איזו
הפה
זיקה
##וחא
שריא
טענות
##ניין
לענות
##ברתיו
לאוס
באוכל
לבשל
וכ"ת
מקמי
##טף
##סוי
כלב
ומיד
דיר
בחמץ
ממא
קיימין
סימני
קרוי
עמלק
אמוראי
לאחו
להפרי
דגלי
רבוותא
וקנה
ליק
יפר
מצינן
##תבונן
שהתנה
##חרר
רגע
והשב
שהוק
דפריש
השומר
שנמ
##יד"א
לדחוק
מאלו
אילנות
##ותרה
ואיש
יוכיח
חבור
ירי
##טרות
והכ
לדמות
סלעים
העידו
##גדה
האר"י
לעצמה
והוסיף
שנתערב
תרווייהו
##סרים
קרקעות
##רש"ל
האונס
לדוד
##משין
וקורא
נכלל
##טוב
למק
בפ"ה
לגלות
##זרי
תרגום
דוג
##מצם
א"ה
בלשונו
זכאי
ב"ר
בחיים
ניחוש
תקו
##ושם
השותפין
##פופרת
וב"ה
##סתו
מברייתא
למדו
בצל
הנשה
התנור
##ציר
לעד
חשובה
##מיענו
לעשה
א"ו
עפ
אידך
שהתחיל
חתיכות
קוב
ויהיו
באויר
מכרה
ודרך
משבועה
ממלא
##פלים
יקנה
סומכין
##ס'
##ירע
לדבריהם
לטהר
דדריש
ומכר
השלם
דמתקרי
עשאו
גירסא
דעיר
##טוט
קליפה
הפסול
##שוש
באנו
כף
כת'
ד"ת
לעי
כחד
כר"ע
ליורש
דתו
להדיוט
לתחום
ונפש
לחודיה
כתובים
המחילה
ומייתי
שותה
שהל
המ"א
למיתני
בחלה
מציאה
##יביה
להשו
ומנ
שקול
שאילו
הוכח
גבול
שבעולם
והעלה
פרוע
תשא
וממ
מאז
שייכא
##כורים
להתח
והש"ך
איבעיא
ומינה
דמכל
##דבק
##מוני
כתר
והנני
שנעשו
ומשם
גיטא
דרשא
נחית
##מעינן
שהעידו
לכר
מבטלין
##יל"מ
##?.
##נחנו
הפחות
דר"ה
דפוס
מעכ"ת
##וה"ב
בשת
אלהינו
יראת
בבני
אותך
##בועת
##רה"ר
ש"ס
##עורים
ויג
תומו
ואותו
ובדברי
##יבעי
##יקור
לשלוח
##רמב"ם
לשר
רה"ר
בנדה
##ושעיא
באחת
והאשה
המשיח
##קלים
זמ
משר
בהקדש
עמ"ש
##טבילה
שמצ
שהודה
לסתור
וקי"ל
פלא
כשל
מהרי"ט
בשפת
בקהל
חשיבי
שאת
מיר
קטנות
מיתות
קדשו
הלי
ראית
מלבוש
הקדים
בקיאין
דתרי
בנותן
דה"ק
שסיים
אדא
לחופה
שימ
ואכתי
מטמאין
מכניס
##חויב
ה"ט
וסובר
##מ"ט
אומות
להעביר
משוי
חמין
בנס
##ייף
וכיו"ב
החודש
תרוייהו
מובא
##כ"ת
התלמיד
במגילה
שטרי
דמצות
שמין
תירצו
שנתח
החד
שובר
לההיא
ורצה
##חרונים
בבן
בסוגיין
באחרי
##יתות
כנראה
חוזרת
בעולה
החלק
לקיימו
מעלין
סעודת
ענבים
רופא
בדלא
חגיגה
שנדר
מעיר
לחיות
בע"ש
קח
שבתוך
המכר
הלכו
##ביב
##ילתיה
הסוברים
לדרך
מתרץ
ששא
ה"ק
השוה
מיימו
כתבי
מרבה
לרבה
פסולי
שידוע
לשלו
שהות
##פסה
נטילה
מיהת
אודות
##יכים
בגין
מקצתו
נ"ח
דר"ע
ופירוש
##כילתא
##ותי'
דאתיא
אוכלת
חששו
עומדין
העמים
בזמ
##צה"ח
לפל
##עיפים
ואכ
לכוין
רביעי
להתחייב
בינה
ומיו
##שרו
שביד
לטוב
טהורים
עונות
##מישי
##ותחין
ברבית
##כ"א
מקיי
דהואיל
שרת
בכותל
תהי'
הרשב"ם
שתקנו
הנזכרים
עוק
אתן
דכולהו
חוק
הגפן
דסתמא
##צרת
בתענית
האכילה
לפתוח
לטרו
שחרור
לצדקה
##זוק
ואזיל
הארון
במגו
ששניהם
פתי
מהרי"ל
חם
בהמתו
חציצה
נטע
עצמך
השלום
תשובות
##סקינן
##נתינו
##רוכה
צריכות
וקרוב
וערב
העדה
דורות
רש"ל
בקל
ושנים
##רושה
כני
תחל
וקודם
##ניים
והשאר
בכורים
מחוור
וכלל
##שי"ת
וגומר
להוציאה
פירי
ליבום
דכ'
באותן
ונהי
ממין
ששחט
כדרכו
נפלו
##ורן
הטהור
##ניחו
ציו
ולרב
שירה
##יהנם
מכ"מ
##כורה
כדאמרן
שייכות
תמים
דס"ד
וכלי
בצבור
קושיות
##זיל
ההס
להתנות
מגע
הקטנים
שוחטין
ובשר
לר"ע
בנוגע
שהי
אירוסין
נכונה
כמע
טור
חננאל
הכבד
לחתוך
אזל
##שי'
מתקן
מוטב
המאמר
ראיית
משוב
##וסה
בחזק
אכול
##תך
דדייק
כמב
מותו
הילך
##מתם
ויקח
זול
בצירוף
הנביאים
אצלם
מה"ט
אכלה
הנשואין
וכדכתיב
נוסח
מפרק
לכות
זכותו
והשל
שבית
שדות
נקראים
החש
מבשל
מיט
כההיא
##יפין
בס"ת
יכתוב
וברא
וכדברי
בעובדא
ונכון
תביעה
מקוב
אילימא
כ"י
את"ל
ובנו
יורשי
פנחס
לנס
קיל
המלכות
דממ
ויט
##גיל
זקנים
לטומאה
##דולים
תפילה
שהבין
הנודר
ברמ"א
##פתי
התמיד
כסות
##נקט
בבבלי
בימות
האחרים
יאיר
ה"ב
המחזיק
למלא
שמל
דשי
בנכסים
בתנור
ברבים
אהני
מיבעי
יעמוד
##פניו
##מחין
הברית
שעי
גלוי
הקרב
חמרא
##שתא
שיז
דחזינן
שמפרש
גיטה
ומודה
יע"א
ביוה"כ
בה"ג
דחזקה
##קיל
שכחה
תלת
##דימה
דחזי
שהלוה
מרח
שיור
המגילה
יפול
הגלילי
והיכי
שורה
רביע
פ"י
הדינים
##יער
לשנה
כרשב"ג
##נגדו
לביה
אתמר
זהובים
איפשר
##נף
ודמי
הניחו
שצוה
##בי"ט
מאין
שנשאל
##ט"ו
המיתה
וקטן
בלחוד
הצו
ויפה
##לויי
נפסק
צ'
ומעשר
צרתה
מנחם
דלישנא
בע"פ
משפטי
תבשיל
תערובת
האיר
אבין
לירושלים
התרומות
ובגמ'
בתק
שיקנה
בדדמי
כזאת
##טריא
דמאחר
נתרצה
יורשים
דעות
הגירושין
מפתח
לב'
במנחה
ממקומו
אלק
##זה"כ
וב'
יטע
שלמד
שיוציא
אמצ
ישנו
תמות
מחנה
כהרמב"ם
תחילת
מזל
ששל
קדמו
המות
לחזק
##פלות
השומע
הו"א
שבאמת
##פלגי
הגנב
##מוץ
מקדיש
קצוב
לנפש
למים
##ישור
במקרה
לאיזה
למדין
שחיטתו
בקיצור
##ולדו
לפקפק
באהל
פריש
העשו
דהנ
הבנין
ידידו
וביותר
להטיל
הרעה
הכחשה
יחזקאל
לראשון
##פרנס
בדיקת
חינוך
ושבת
החזיר
##פתה
שבהם
ארון
##ותייהו
החר
##טהור
שזינתה
ואשת
והמה
בביצה
ע"ח
כלישנא
שוות
תנאים
שטוען
רנ
בפקדון
בבחינת
האבות
בקטן
##לוע
דמצינו
בעינא
בישוב
בקרב
הטורים
תופסין
נתיב
מהנ
דלר'
שבני
##תייר
נפילה
בשי
נשך
##נוכה
בהני
ישנים
##קדשי
כרש"י
לינשא
שותף
חלקי
בנפשו
בסתמא
תורתו
דאב
נהירא
בשיעור
##וארים
לידיה
לחבר
דקל
מוקדם
##רקעי
גילה
והלכך
##ב"ע
##יוע
כדבר
הטבילה
מדקתני
ניתנו
דידי
##מינה
שקלים
שיכתוב
מכשול
שניתן
מלב
מונ
##ברכו
הפרו
לאת
מתקיים
לגזור
ובשעת
עשית
הרה"ג
תכלת
למנוע
מהס
הסימן
##ראות
ידך
אעפ"כ
##סוך
].
ותני
דסנהדרין
אוחז
מראש
צרכי
מאשר
דבלאו
ויאמרו
הגהות
בר"ן
מזוי
##י"ט
מתניתא
הנישואין
##ידת
מפורשת
מועלת
בעזה"י
קבלתי
##טלת
דביצה
יתח
##גדי
##יובתא
שנוי
בטלו
לפלו
##קדוק
אסתר
להרשב"א
לגמור
דבן
מוזהר
הוצאת
הדלת
בציבור
דלרבנן
שלהן
דהי'
והמו
המביא
##צן
בעשרה
לבוש
##פיע
אמנה
מתבאר
מלאכי
לתפלה
ומתה
השותפות
האלמנה
תלה
כחכמים
שחטא
באו"ח
למות
פול
במלחמה
מכוון
המדבר
פסל
הפסיד
מקבלים
בכהן
הצעיר
אריה
הר"א
הנחה
אקרא
מטב
מעמידין
ונשת
סומך
##פקיר
שהובא
תוסיף
מיתתו
דמספקא
כותי
הנוגע
בע"א
##רהר
##סיפא
ומה"ט
הודיע
##קני
הדורות
##חקו
יצאה
יזכה
וביאר
דיכ
טעין
להתירו
לפע"ד
להרוג
באמרו
לחתום
רוחב
נ"ה
הרשע
זומ
פרנס
שמקבל
יאכלו
בע"ה
לקט
כדכתב
ועשית
הנרות
תקלה
כדלקמן
ויו"ט
למנין
נביאים
ומצוה
ואוק
ולילה
##פם
בבגד
דנעשה
תצ
קלים
ש"ש
בקדושת
שעתא
וגדולה
משפחה
##ריים
הדבור
גופי'
באה"ע
ונשבע
ועמד
מונה
מק"ו
הפוסק
וסבר
במדה
פנויה
##נהיג
יומו
מתוכו
דהתורה
להבא
תיקן
ושאל
דכשה
לרבו
התי
התרו
##כחי
לתרומה
לח"מ
שליחותו
משתעבד
חייו
בעור
בעבודה
##קול
##מורת
למקומו
יפרע
והיתר
שנטל
יקבל
##צירה
והילכך
הנכנס
דרבים
לפירות
כת"ק
##רויח
הנשמה
אחין
פרשיות
והריטב"א
מבעלה
טענינן
לקידושין
וי"ו
כסדרן
סעיפים
דהרשב"א
החולה
ופירשו
וע"ד
בפרשה
ואנ
##קדשו
טרח
המקשה
בבקר
##וריה
##יפה
לשה
ושכ
שמוציא
גודל
בהמת
לשחיטה
בטהרה
ותר
מניין
הגזלן
למקדש
דיליה
יודעת
שעליו
לעלמא
ותק
לעדים
בשמחה
העבירה
##טון
##עושה
בסופו
הקברות
##ינינן
בשניהם
בספרים
פגם
מגרש
דיבר
כפשוטו
המצר
##ציצה
וליתן
הנהו
דתלמודא
טרפון
לאות
וכס
דת"ק
##מועה
נשואה
##בונה
להקדיש
##ושטא
בשור
שיעורא
##מייהו
דהה
במטלטלין
גרוע
לשוב
##פתו
דמלכות
מדאי
##חזקו
דבודאי
מכתבו
הריוח
##יטיב
דידהו
רשאין
דדילמא
הנושא
תושב
##רבעים
##נוב
נופל
כרי
בגמר
מטלטלי
מועלין
שקשה
באחר
בכ"ז
בסק
והודה
##רעור
הר"ר
##מו"ר
מזר
שוק
##פעמים
טז
מחלה
מסתפק
כשאומר
עשיתי
מתב
ומצד
ודחי
##ינ'
שחלקו
וו
החת"ס
בפל
הבדלה
בדקה
מהריב"ל
הקבלה
דבתר
בקב
ההלואה
כשו
אזלא
הבו
לשאלה
##כמי
והמע
סעוד
ואיהו
טובת
חזקיה
בגלל
טמאין
לאשת
בזה"ל
מדאמרינן
##כסה
המחשבה
נזהר
##לד
קלו
השגת
עופות
לסדר
יקר
לטעות
פשיעה
שביאר
אצבעות
שקודם
נהג
בשותפות
פקו
שאכלו
בדבור
ובשבת
לאכלו
דממילא
ונג
דבוק
##סום
מהר"ש
למצות
כנודע
הדדי
##צוק
ששלח
לעם
למדת
נחלה
המאכל
##מחים
להשביע
מוחל
היורש
תנור
ומתן
לא"י
יגע
הנהר
להכריע
שיקרא
##ינוס
הילכתא
##כלי
זעירא
ולוי
##רוח
מחזקת
המשכיר
הבדל
הבאתי
נ"ז
נוטלין
בקנס
לתנא
##ס"ד
##חיל
##ט'
שאובין
עגו
הנע
מקדשין
ברכו
הס"ת
בזוה"ק
##לוץ
להזיק
המובחר
דורש
המור
התקבל
##טרח
ככה
פלונית
גאולה
שזכה
##נבו
שאותו
לקרבן
דעי
אבדה
ירך
ובעיקר
במציאות
אשכח
לכופו
נפרש
אחריני
החופה
לשמא
מבאר
נקוב
בא'
החבית
קונ
ומשת
ותימה
חזקתו
קרע
האבן
פאה
מהתם
בדיו
אומנות
מנשה
אמירת
##תאר
כעיקר
שבודאי
דמדברי
בע"מ
שכש
לפיר
חט
נשר
בהב
הרשעים
דר"ח
מקובצת
עליכם
קבורה
נעלם
בתפילין
ניזו
להפך
ומסתמא
סודר
צונן
הצורך
האחין
רעהו
דתימא
וסי'
והרבה
למל
ומש"כ
לחכמים
מכזית
ולהבא
ולג
לתק
##דימו
חלון
שרבינו
ויין
תקון
לר"ל
##וה"מ
ופרק
הזק
##לונות
מתעסק
פיגול
ריבוי
הפי'
אוסרין
התחלת
שניהן
אבותיו
עולין
עמנו
זרעים
מבושל
##צמות
##מאות
נ"ג
החוט
דסת
הודא
##ייתו
נתגרשה
ור"ת
השג
לבם
שמתה
תפלין
הזרע
לשמן
ובפ'
והתניא
במיתה
מעלות
לאחיו
תואר
מכירין
שטעה
##צחק
ואשתו
הראשונות
ממתניתין
שאחד
פשוטה
נתקדשה
דלש
הידוע
בגלות
##גרא
בבבא
עצמי
במ"א
הקריאה
אימת
וקיים
מב'
שדין
המין
אדוני
##זבול
סמיכה
ומשלם
ש"ח
העיסה
פירושא
##מצעי
ליעקב
ואכמ"ל
##ולקים
##נוני
בחמין
דגרמי
##רונות
בטענה
הלבנה
שתצא
הקילו
מלמטה
##פשות
דתנאי
האידנא
אפוטרופוס
##טהרות
מטו
זקוק
בדוחק
בגר
בקצרה
הה"מ
בספינה
בתשובותיו
אחורי
##יתרא
באיסורי
ג"ש
טול
נותנת
לחירות
שבארנו
הצר
##שירים
הה"ד
מגר
קרובה
שבי
מבע
דרבוותא
וכשא
קאמרי
ויתכן
לאכל
נסכים
##צטרף
דוק
##וסס
בגב
מקרה
##לקין
##יני'
דאמ'
מינין
כשהם
קנסא
יולדת
להרבות
שעברו
דכונת
לכלי
מלפני
ודומה
##חזקה
שלחן
בחג
##ובב
יתירא
בחדש
מרבנן
##אים
##ראת
ודרש
כשני
סח
מדברים
דרחמנא
בדאורייתא
שתק
ומצות
המחלוקת
קנוי
בבעלים
מותרות
כבש
גיסא
נתר
וקבל
התחייב
מצויה
שהעיר
קריאה
לטובה
לחכם
והרי"ף
##צאין
נתערב
בבכור
##פללים
ממר
##סקו
הדב
באהבה
כנה"ג
ושר
מאומה
יהרג
מעכבת
לשתי
עינו
להשכיר
לבנה
מחייבין
##כילו
כשש
לחת
דלפ
מביאה
##בדלה
ואידך
שחולק
יחידי
קצו
לחולה
מראית
במנה
באילן
דעובר
גובין
ניט
##יקין
חיישי'
שהשיב
אב"ד
##ור'
דאטו
אבני
לממון
##חלל
##ילם
החצי
דסיפא
והוכיח
אבותינו
##קבלו
ומניח
ושחט
ורח
##כרון
מסיים
פג
המל"מ
אברים
שדרכו
##גזר
כדכתיבנא
בדל
שבשעת
לטעמא
שהעיד
##עודת
גדי
דרישה
ישעיה
גלו
##נאתו
וכותב
ובעי
דשליח
ואיזה
מיכן
מהדר
ט"ס
##ב"ן
ככול
לשניהם
##פנה
##ושי'
##פשטות
ולהוציא
הקדושים
##ע"ג
וממכר
שימצא
נבו
כמש"ל
עניני
מש"ס
להפסיד
וכדעת
ביל
שקו
נוהגת
אצלה
יחשב
##מינא
הנעשה
##יוני
מאוחר
לוק
כיסוי
בשחרית
ישיבה
כתובת
מוכרחים
ולהיות
דכולי
הרוצה
לקיום
בסוד
ידיהם
נשבעין
המנין
הוצאות
דמלכותא
העיון
##צדק
נחמיה
במדינה
ועולה
##יאשו
רשב
רוחות
שאיסור
גמירי
ופרט
וקדש
במלא
שנסתפק
:.
תנינא
הקה
הכין
מעמד
##שובות
דאיצטריך
##גלחת
ואמרי
##שבתו
נאבד
ובסי'
זכרון
##ינתי
כרא
למכתב
יראו
ראויים
##יעבוד
וענין
החולקים
דיצא
באכילת
דדרשינן
##ימטריא
##קדושה
שיבוא
##פחתו
דשלא
ידעי
שדו
מעב
הסתם
נוע
הנפקד
יוסיף
אינש
הטענה
ברא"ש
בשלום
בשמי
##מסיק
זא"ז
וטמא
יתיר
דאזיל
להתחיל
בשאינו
הוציאו
לשיט
בסעודה
הזמה
בגזל
##פשע
נסים
שימות
הגזילה
דקים
הקבר
ויברך
לון
למעשר
הכריע
ענינו
##כנים
##שהה
מדרש
מתחלת
##פטיר
ג"פ
פורים
הטעמים
##קרב
##עז
ור"א
במקוה
דאסר
והך
דקטן
##וקק
הנכון
ניהו
הד'
עשתה
דידע
##כיון
לבער
דפי'
ולפעמים
בכהאי
קרח
לחשוב
##דס
שלוה
בטומאת
דהרב
שיזכה
שנזכר
בידוע
בב"א
הכתובים
השמות
שונא
בתולים
לשמים
בדרכי
אלים
ופסול
##חיצות
מהר"א
מציעא
יתפלל
למיעבד
המשניות
בשבח
בנדר
דשבועות
דקנה
לתלמיד
שהקש
המסקנא
גופי
מטמאה
ק"י
כתבה
מזון
##מונו
ושניהם
##ארו
שנודע
למעבד
ניטל
הכיר
ומתרץ
דאוק
עונשין
וחלב
בשבוע
הפמ"ג
דנפקא
משוה
שהתירו
הכוכבים
אותנו
קדושי
לעיקר
השעה
איריא
לגופה
עברה
במשיכה
מבורר
##מוק"י
מהירושלמי
אוהב
והיאך
ששאל
שרש
ממשעבדי
היהודים
לוגין
##שתם
דב"מ
ארוכה
##יטי
שאלתו
מוח
ששמו
פיהם
ללבוש
כביכול
דכא
במשא
העצם
ונותנין
##דעים
ע"ע
לצדד
מכול
נ"ו
פרעתיך
בפ"ו
יגיע
חטאות
ואתא
ולז
הראויה
שמועה
##יחת
הקנאה
וחלק
##יבורית
כמעשה
##זלו
##ניהן
##פורן
לפסח
סקילה
מאיש
המנונא
שומא
חסידות
עקב
הסימנים
ועז
טועה
ומבטל
זכיתי
סעודות
שנייה
ובטל
לוג
ספיקות
ותי
כוונתם
שלב
החרם
דנזיר
##ברוך
כדאי'
צורה
חדשות
השמיני
לחש
למרן
ביניהן
סתום
##פיסה
דסוכה
עולות
ובענין
דיהיב
##ניף
מימר
בודקין
אכילתו
מעורב
##קומות
דבכורות
הנשאר
מתוק
בעילת
בהל
תעשו
מניחין
כדמפרש
דקה
להאכיל
המדה
ממ"נ
הירדן
שפסקו
החולץ
תערובות
ותניא
##זיקין
וטו
מעכבין
דיחוי
החרי
מאמ
הודאת
הגעלה
הראה
##ג'
תשע
פקד
בגדיו
זמנה
להשה
##כבר
וכשם
ר"ז
##צוי
דלדידיה
##ייבם
הוש
לסלקו
הקבוע
ומיירי
באחרונה
טיר
##מירים
דבריה
לבוד
ומשה
מהר"מ
המינים
הקי
דיק
כוסות
אידי
העובד
##טוו
מגיד
להכ
והתורה
ומסתברא
לעשותה
דינין
וקל
כתם
לבדה
קורה
יכנס
מחט
שבערוה
אבלות
##לבוש
##ילונית
חבורה
ור"ח
דבעלמא
להגיה
מסיח
ולהש
מבשר
##ב"ח
##יתים
##ופיה
##מיהם
מחמיר
שלמעלה
זרק
וכבוד
למסקנא
שלדעת
יחלוקו
##קיע
ומדלא
##ישן
דממונא
מתיב
וד'
שנב
אשו
##כבו
משלשה
הרשאה
ואמת
וכתבתי
השבטים
עוברת
מניה
יתרו
##חתן
ידעת
אנס
הוקשה
לבור
ובתו
שיחזור
חטאו
הפשט
שהרא
##קהל
פועלים
עבה
תבוא
לשבח
##קצה
היכר
ושכן
וכדאמר
עג
דחייש
דיא
חו"ל
דבמת
##פסו
חזית
להשמיענו
וכת
##בעי
פעולה
מלאה
לכפר
ויתר
##מטום
##טילה
נפלא
פגום
בפירושו
בדינא
יובן
נדרי
דר"נ
ופלי
להכש
##שבועת
נאסרת
כשעת
בד"מ
##צק
הבאת
לר"ת
שיתנו
לגוף
וסוף
הלוים
דדר
##קרה
דפירש
והאר
ואגב
שבכתב
עדין
הגיעו
מעליו
שהעלה
##להים
למזונות
אומרין
##עלי
הפריש
הקר
##שינן
לפניה
לנח
מכם
משבת
עקירה
##וד"ה
המדות
הבריאה
ובשלמא
בבבל
##ידי'
דעדי
##פוט
פותח
##פרשה
וחמור
מעלי
ואיב
דוה
שכנגדו
לחיים
וסיפא
##פסול
הדירה
דדם
ירושלם
##כנ"ס
המבי"ט
חלוקים
הגזירה
##ה"ד
בחל
הקרא
בטלים
איהי
תבש
יימר
דעו
להגיד
נצר
##פף
נוחלין
דמלוה
לעבודת
כסתם
קרום
וילך
ועוף
מחר
הש"ץ
##יכ'
גסה
קבור
ליתנו
התוספת
שרינן
##קשן
מוהר"ר
להדדי
##לימו
בחטאת
ניה
שמצוה
פלוגת
מבק
טהרות
קולו
משע
בקרן
הזב
משועבדים
בערכאות
המלחמה
כשח
שו"ע
##חלב
##כריע
ביובל
דנפשיה
מרה
לבשר
הגרי
הקטנה
דשניהם
שמור
תפלתו
הבגדים
לשונות
אדון
דגז
חבל
בעול
##ברי'
##זלות
בהיותו
ומיושב
##כ"ד
ת"ש
החומר
מצרי
דאדרבא
תשלומי
דשאר
וכולן
הנזק
שומן
נגר
דיחיד
השרת
לעשר
כונה
##נעו
דעתא
דזבחים
האבל
אה"נ
יתיב
עשאה
כשנת
נמכר
החתיכה
נתכו
וברש"י
בחיוב
בפוסקים
חמי
והמת
נפ"מ
אחזקה
לו'
כמפורש
קנאה
ול"ש
היובל
פירכא
ודייק
##הג
דהש"ס
הבדיקה
##ומה
שי"ל
נזקקין
חושב
ששון
במנהג
בטלית
ערות
דהלא
להדי
##ישר
נלענ"ד
שכולם
העירוב
להזהר
לשער
מגלח
הגאולה
וידבר
לראיה
להרמב"ן
חנה
שעד
יתע
##סי'
##כירת
משתמש
וכר
הנייר
דיום
כשהן
שהלכה
מפורסם
להתא
ומקשה
הצדקה
ועי"ז
אורך
ועו
בכולה
דסמ
עפי
הטובה
עינים
כמח
הנוב"י
הג"ה
וקמ"ל
טובות
ולע"ד
שנוטל
ובשאר
ומחמת
עבודתו
##ירושלם
##לוקין
מעיקרו
התפילין
אינהו
##ושיית
נבעלה
זיתים
##ניע
ופסקו
המובא
ודעתו
ומעלה
בהקד
אפי
##פריך
אהבת
מרשותו
גואל
ומנין
##פירושו
שנתי
הדל
רעות
המטלטלין
##זת
שכותבין
הוראת
עמרם
הידים
##מירת
##גלח
לשבועה
תשרי
הערבים
##קדשים
וה"ל
זקני
סכום
משמש
כט
דל"ה
ידעה
דלכ"ע
דכה"ג
בכס
מחללין
כמובן
לנד
דמשת
מצותו
בקרוב
חמיו
סילוק
##רשד"ם
בפרי
לדייק
##פוח
מגן
להמשיך
##כניסה
משתי
דרובא
איד
חולץ
עולים
וחשיב
אזלי
דבפ
כמעט
דחש
ויהא
דגמ'
##ובות
דאומר
בקט
##הר
ולעיל
וכוונתו
בעליה
חסידים
כנזכר
מאותה
מעשים
##לתות
בקיום
דמגילה
וסימן
בערך
שקבלו
חמיר
שנתנה
חיובו
לזרע
##פשטה
ולמטה
לרה"ר
שיפ
##זרתי
תנינן
דחמץ
תוספתא
דמדינא
ונמצאת
חשבו
וקיימא
הפוס
##טיפה
שיקבל
לדידי
הנשיא
דיוצא
השמועה
##בדי
מדאמר
בתמורה
והואיל
פסקינן
הביטול
שבמקום
החשש
##עבדו
זכרים
וניחא
לכמה
שהמש
ישיב
יחול
ידבר
דנפ
הבנות
ושע
היצר
מנייהו
בוא
לתוס'
וברכת
המכונה
ילמד
!?.
ויודע
בפשיעה
הבקר
בשופר
הסכמת
קביעות
התבואה
רמב"ן
בחזרה
כללי
##חריו
המבוי
יפסיד
בבור
##ידהו
דלר"י
היכל
יקום
צאת
ואימא
שטען
מימי
לתוכה
שביעי
דכוונתו
לנפשיה
מטר
כירה
לעזרה
עמהן
הישר
לבינה
יבמתו
##גודה
ומסיים
סמכו
ב"א
קניא
וראובן
השולחן
אגו
בידיה
כמלא
וכשר
##יבי
לטובת
##כחות
במשך
יחז
וכדכתיבנא
לישני
משח
התבשיל
הדחה
##כינו
בנפש
דכר
מתני
##ודיעו
הדיוטות
בבוקר
הפע
המוד
לביאה
לזר
לאקשו
סכך
שאסרו
דלפ"ז
תשמע
ומ"ה
##דוני
קצבה
##ישים
רגלי
הלה
##גגה
היורשין
##זו"א
##ודק
ולהנ"ל
בעודו
מעבר
דוודאי
חרו
שהשו
הפרעון
כבי
##ציה
דיינים
תרועה
##מיון
הכנה"ג
מומחין
ורביה
שהול
##חתך
בנר
##לאל
לתפוס
למדינת
ידועים
צפון
מגופו
וליתא
##חרט
וילדה
דפו
הנץ
שנחלקו
שבאה
כאביי
קבין
תכשיט
האחים
למתני
זקוקה
הכניס
בח"א
ונפטר
##סט
הלקוחות
אביהן
שכיחי
חייבות
##פללו
ללישנא
##טעה
שאיני
מדיני
ועליו
שכ"מ
מברכים
מקודש
וסמך
הגר"ח
ברה"י
##ירוח
##דוניא
##יותו
בימינו
דב"ש
ברורים
מברי
לההוא
דהדר
מדכתב
כיום
בכתיבה
##צוץ
לחיוב
מקצתה
והב"ח
##יטים
במכר
לפגם
ובכלל
ומקשינן
לתקוע
מצויין
ארישא
חכמת
כרמלית
נתפס
וטוען
המלו
ומשפט
להצילו
השנית
דהביא
דימי
לשכור
דמדרבנן
י"ו
##אב
ומשנינן
##פום
פחותה
שודאי
להכחיש
##אתים
לאקשויי
בעדי
שמב
לנק
רם
שכב
לאיסורא
אמרנו
##פסי
אתר
הנבואה
הזר
ומז
בדור
אישת
העצים
ופלוני
באמירה
שיבואו
ולגבי
##צה"ר
הזכר
דידי'
##נבא
להקב"ה
והלה
בבנין
מלכא
המקנה
##גרשת
בקודש
הפטור
צרת
##יחו
שלחו
נוש
פשרה
סברתו
קדישא
והבעל
הנוס
בימין
ואלה
ההת
ועיר
דקנין
רע"א
שמשמע
לגב
##ערכה
שנשאת
לבטלו
##זוב
אנפשיה
##פרשת
ושלשה
ע"ט
##גי'
להחזירו
מכור
דמעשה
נשוי
##לש
שיחול
שחלק
##כינה
כפירש"י
ודילמא
פניהם
וכפר
המדיר
לרצון
הכניסה
בנא
צ"ט
חסיד
ומתו
##יעים
הכה
וער
בכת
מחשש
ואהרן
למיפרך
##זמו
בגדול
דאמרה
ופעמים
##צ'
מאחד
ערבות
שאח"כ
##ודל
העגל
כנז'
שתחת
בטול
נאם
תאחר
ביבש
דאולי
בפסקיו
מציל
דבשאר
ונפ
מילין
וטעמו
הזיק
צבאות
##הום
זבין
השעבוד
ובתשו'
ומקבל
הכלה
##גיין
שכ"כ
הקדירה
צ"א
ובכן
קיימו
המברך
בצונן
##כילין
דהד
והאמר
מאתמול
תשת
##פנו
##שועבד
שטרו
דמצד
וחזקה
דמחלק
לבתר
החליצה
לדם
חוזרין
מתשובת
דכך
אחו
הי"א
##טנ
דקרי
סומא
##ריח
שחשב
##גדלו
##כף
##מורי
דמחמת
במעי
גלגול
לקבלה
לזרוק
##שכה
באנ
ומהאי
התחילו
ווי
אייתי
שמחל
##נוה
ושמו
הנזכרת
שמשת
##כנות
שונים
בסברא
כפיו
ומקום
והעיקר
קבעו
בבריא
רישיה
##למידי
מכלי
ומעשרות
מורידין
להור
לפוס
דלב
מוה"ר
ספיקו
האה
הזורק
אר"י
ההיכל
לאינ
לרח
##מיכה
באלף
##ונב
פסקי
ורבים
חובות
רותח
##גיד
הקודמת
בשט
מדמה
השבוע
יהוד
שהוסיף
##שכר
לצור
אי"ה
לחטאת
לדירה
מהרשד"ם
##סיקנא
נילף
דב"ק
עדן
ללאו
כמס
מתבטל
צדדים
נקראו
דטרי
דבעי'
שהשב
כשמו
מעלמא
קצוצה
נעל
דל"מ
##זירו
ויהי'
##תיחה
פושע
כנו
ובסימן
צ"ח
בקבר
שעתה
דחכמים
שכלו
##פיקו
מהרא"י
נוד
השליש
הרשב"ץ
שחוזר
עוברים
ומנהג
החסד
מתרומה
לחצאין
##דיר
ובצ
במגע
דכלי
החטאת
וכמ
לפדותו
הבנתי
##פרעון
עינינו
שביק
דבדיעבד
שהאדם
וטב
שישת
דרשה
עסקי
משכן
משגיח
ביתר
לאוקו
הצאן
לר"ה
##כניסו
מכשירין
ואתם
כדפירש
שמצד
טבח
קנא
ריה
ביע
ושייך
דעכשיו
הקומץ
ופו
זינתה
חוצה
וידע
הס"ד
בתמיה
כדתניא
ש'
##גבה
שלפניו
לנת
ותנא
מהיכן
ולמי
לחשוש
ולדעתי
שפל
##עילו
##רבות
תתא
לאידך
פוטרת
בלק
משנים
טהורין
דלו
##טעי
הגלות
מכירת
מטלטל
המוצא
יעוין
##בתו
##פוץ
שעושים
##פטרו
ממעשר
שצריכה
אשתי
בשליחות
לטלטלו
לעסוק
היסוד
שלע
דתרומה
עינוי
פודין
לאלו
לרחוץ
בטבע
מדרך
וצריכה
משקר
שנברא
##כו"ע
דנקיט
דרוסה
שהשיג
כאלה
הלז
וקאי
פיה
ק"ה
המנורה
שהטעם
##ושש
שבירך
שהחזיק
נגמרה
וכשב
סריס
יוצר
ונמצאו
רבעי
דראוי
יחדיו
כש"ת
##דונו
רחבה
##וששין
שידעו
##מיים
דלכתחלה
האחרת
המלאכים
דקו
פתוחה
##גבר
בנמצא
תולדה
כנען
ילכו
##חדש
מקלקל
בקריאת
משמט
בשאין
משקל
ונקט
##גישה
וברייתא
ומלכות
בחליצה
לשת
שפטור
ומהני
##מוח
שביתה
ובע"כ
##מום
המפה
ורבו
ואנכי
עיניך
מע"כ
אושעיא
בקוב
מקרב
כבית
##רי"ל
דשיל"מ
דנח
##כת'
נאמנין
הגיעני
שוכר
##חיך
משכו
טרפות
גג
להפ
לתרו
דתליא
##לדת
##עול
הזאה
היית
דול
פוג
שמירת
הערוה
לב"ה
ומוקי
בשבועת
בהח
מזרח
דמות
##קדשת
העמדה
תרצה
בחור
כספים
שדקדק
תפילת
הפרישה
תפארת
##צתם
##פורי
משנ
להקפיד
כד'
מנכסיו
נזר
שעבודא
מדרי
דש"ס
במש"כ
בחק
##קיעת
משמעון
בחליפין
ככתוב
##ועי
היותו
מפו
לעולה
מוריש
לדידהו
וארץ
מכין
הסכנה
כצ
##ריבה
בבתי
וברכה
מידה
שנתב
##טמאה
אורי
הרופאים
הנמצאים
איק
בששים
דחול
האת
ענף
במאמר
מרים
וחדא
בעבודת
##סרא
ובמח
ותנן
שביתת
התפילה
ערבי
שקדם
בהמ
##יהיה
שחור
זוממין
חדר
דבריך
במשפט
ויעוין
קצרה
החיצו
אשכנז
זכתה
להלו
הזבח
נחשבת
בעלת
לאחרי
מוסיפין
ורוח
תקיעה
ולר'
אורחא
הגון
שיתחייב
לפנות
וספר
רוק
##נסין
מואב
להאמין
מפיק
בזול
תקח
קובע
##ראו
נחלק
ספרא
##כלות
המציאות
האסורים
לעומת
##שק
אוסרים
מרדות
חטה
צ"ו
##ספין
##שלום
##ורל
שנס
בטר
בערכין
בינונית
ה"ו
ירבה
תמרים
##פארת
למהר
##וש"ע
השע
נוח
לקוחות
.+
דמנ
לאויר
נשי
צואה
שאירע
בתוספת
חופ
פרץ
לאוסרה
##חמץ
הקנס
דקסבר
רוצח
ק"א
נקנית
וכלה
ור"מ
דייני
##גישו
לעניין
דעבר
נשארו
השלישית
עשרת
שמנו
בשכירות
ובשל
יכלו
העליונים
טעמיה
בא"ח
מגוף
##חמירו
##חותו
להשאיל
אמרין
דדרך
דע"א
ורש
שותפים
לרפואה
יורשין
##פוד
משביעין
האויר
חטין
ואבד
##יבורו
מקול
העניים
כרבה
עשירי
תביא
מאב
בקדש
מתכות
דמ"ד
איתרע
וביו
כדפי'
שקנו
##מרות
הכת
והגאון
בניהם
##טילת
שעובר
חתמו
אליש
ראויין
נשמת
שמעתתא
איברים
גורס
חילו
לדברים
שהוכח
וסתם
שמאחר
להזהיר
ונטל
אורה
לאפות
האחרונה
שהבאנו
##ותך
דכהן
שילך
חי'
האמ
לעורר
בוגרת
בשלימות
מעיין
טענתו
דבטל
שומרים
קומי
דירושלמי
##ריב"ש
דסוטה
קעביד
מהי
בקטנה
החובל
רשאים
דהדין
הורא
דקני
שמוע
ונימא
דשת
מעבירין
חוצ
שלימות
בכריתות
לפשוט
קשים
##צדיק
יבטל
חולצת
ושמן
לקדשה
בארוכה
רודף
האחת
הנחת
המשך
במקרא
ומזו
דבדבר
לכנוס
והמחבר
היראה
גונא
נוב
לומ'
חזו
מהול
##כמתו
שיעלה
קיר
דב'
מפאת
כבשים
##מיהן
רומז
מלע
יענה
תיובתא
וגר
העונש
מיחה
המפורש
דשמ
רגלו
בעכו"ם
והדין
יובל
שיטות
וימ
למקוה
בביטול
דתק
וסייע
מגדולי
ישל
המלכים
פלוגתייהו
לער
שבב
שהמים
מתרי
##פסת
שישא
לפוטרו
##מחול
ומני
כנעני
ויאכל
ומתנה
כרך
וכלים
וראו
להבדיל
שכוונתו
וזר
נתא
בנוסח
להודות
הגורם
כמדו
##צוף
ובדין
תאנים
הלולב
זוטרא
נגעו
הולכה
גיטך
להוש
במוכר
דאדעתא
למיש
##ילוך
דינרין
בהרבה
נסתלק
דבהמה
יצרו
עגלה
נערות
הרבית
##שבעין
הפועלים
הרים
דאינם
שעכ"פ
שהעדים
שהחז
דבנ"ד
מרגיש
אשמעינן
רה"י
אחרא
בגוי
קרבנו
אמתני'
##יאין
ובאה
ליתני
בעניני
לאותה
צרות
גברי
ולוה
דשטר
תועבה
עומר
שגזרו
##בב
מלי
##טיא
##וסת
עבורו
ושלח
ואמרי'
דעדיף
ובלא"ה
הוצא
שדבריו
נטלו
##זוי
נשחט
גני
דוש
סכנת
הנשר
כוותי'
וזכה
החיד"א
הסיר
מבח
האירוסין
משכח
בדוק
בפ"ז
מלשלם
הסחורה
ואכלו
השקל
רובע
ויצאו
הבבלי
דפסח
בחייה
בר"ח
לרמוז
##עיס
הילד
##רצינן
נרג
הפרט
ושיעור
ערופה
עולמית
ולפע"ד
תחתיה
##עהו
##נתם
שקידש
פנאי
והמרדכי
בדמי
מלכותו
לג'
כו"ע
מחזיקין
הובאו
יבנה
דיינינן
ק"ח
יהודים
כדקאמר
בטילה
ויעקב
##לפענ"ד
הטלית
כפים
וגובה
וחמשה
ברע
ולמ"ד
העזרה
הבערה
כתי'
רי"ד
נשאלתי
ח"י
סיד
שמך
פחד
להכות
מדוק
חריף
אמרן
סקי
ויחזור
פורתא
חבי
הח"ס
המקדיש
ר"ן
##כוב
לבעלי
##ישבו
דלכתחילה
##זיקו
##ידע
##פתים
ח"ש
דלכן
הפסוקים
עירב
לשעה
מיית
קלקול
ובדבר
במבוי
לב"ש
בתרומת
העומדים
מגד
שאמרתי
רועה
ממצות
ערכין
מפקיע
##ונתי
כותבים
וסופו
ששוה
##רי"ף
דנשים
שבנ
##יטות
הפשוט
צ"ה
קושטא
משלי
##שותו
ובזמן
פי"א
משמו
בעפר
יקיים
עוברין
לכב
ההלל
##קלקל
ומצאו
ומתני'
בחוב
שאוסר
מקריב
הול"ל
וכ"נ
מכן
איה
תנאה
חתיכת
בעודה
נסתר
במזוזה
מחד
##כתם
דבשבת
בניה
ילד
באונסין
מסל"ת
מהה
מנס
שירד
שנצ
בשמאל
##מותה
##נונים
זכוכית
ונודע
דאסורה
##גח
ממל
להכנס
##כנסת
הימנה
דבפרק
עירובו
גמרינן
לחוב
##ה"ק
מסלק
חולים
דמית
המעשרות
לבע"ח
התענית
צרכו
רצוני
קדמה
כתנאי
מוציאה
וכנראה
זיו
ואמרתי
צ"ג
השטרות
חשיבות
אלפסי
איסר
עירובי
בר"פ
נגדו
מחזקינן
זאב
דב"ב
המפורסם
האבר
##סוברים
הרביעי
במנ
בפ"ח
לקרוע
וסתה
הנמ
לישן
וביאור
ובפני
לקחו
לגל
כדאית
גדל
הישן
לאוקמא
ינו
שיטתו
שנתקדשה
ראוים
בעדו
דמנחות
לתא
למוד
ק"ד
במלאכת
בסמ"ע
נכנסו
דמיה
למלכות
סוגי
וסבירא
האמצעי
מועטת
##וחר
לטב
/.
צמח
והפר
שנגע
הכרע
ע"ו
גבינה
הגולה
קדירה
הי"ו
לאס
ויטול
##חוה
הישיבה
##פורת
עשויה
מבל
רעים
ואליבא
בעוה"ז
יוצאת
##עטף
האומרים
באיסורא
אבאר
שישלם
בקדירה
נאנס
שיחזיר
שלכן
הורו
שא"כ
הוי"ה
הי"ל
קשור
השיטה
מתורץ
דחיוב
הקדרה
מוצאי
ואשם
והרו
##סכת
ונ"מ
דתרומות
סיוע
שראובן
זמם
##צורך
פירותיו
ש"ע
בתיקו
ניצ
קיימים
##ליחות
שפירשתי
אח"ז
סדום
ביקש
בלעם
פרוזבול
בכולן
##ינית
##יאת
שונה
למיכל
מעשיהם
תפיסת
דאנו
הקרובים
רשותו
שיברך
ליתו
בראיה
ק"ב
##ד"א
שיעבור
##שה"ט
פקח
סותרים
נפשם
במדת
##כיות
נהוג
נחתם
בהפסד
עיכ
וחס
ושלש
המלאך
רמיא
ריאה
ערום
דוא
הרהור
שערים
העולמות
גביו
כבן
איתיה
##חרש
שמגיע
תביעת
ועשרים
בגי
עדיו
טובי
הערוך
מתכת
מאכיל
אמצעי
לת"ק
לאבד
דלרבי
שהוצרך
גנאי
הקפ
בכולו
פנוי
משלח
בנשים
##פשה
דאותו
##ושיו
ועפי
הודו
דרשות
בכוס
##ה"מ
המטבע
ממעשה
איקרי
הקרוב
ושנה
צרכיו
לעיני
חוטין
וכדמוכח
כשק
דנמצא
פוסלת
סמוכים
מינץ
דוב
לשומר
למצרים
ביכורים
מאביו
דמשלם
כדקתני
לרגל
משער
בק"ו
בקושיא
הופ
וכאמור
שבהן
בגליון
בנך
##כרות
לענ
בשורש
ברובא
לומד
חזיא
פעל
##שבות
בתפלת
יומת
לאחריו
נדרה
##זכרו
האילנות
אימור
להגיע
שהזכר
מדאורי
בקום
ועובר
מגלה
שראתה
##פנות
שמעתא
##ינתא
מטי
##ביל
ולשיטת
דבזמן
ממד
##ליגו
ור"ע
##פותא
##חזקת
וכמש"ל
וכולם
שמשה
מסויים
דנפק
אסיר
לעין
קברתיו
מהיכא
ראשה
הנחש
במין
דמרן
בחלקו
ותנו
##מודו
יקראו
יגרש
החסיד
ביבמה
לגלח
ומתפלל
סמ"ע
מדם
##בשים
לשי
והחז
דדעתו
הקדמונים
כינוי
שידו
משק
שנכנסו
צריכי
גיל
כתבם
לנשים
אלוה
צ"ד
שלוחי
מפסיקין
בקידוש
חזרת
גזרת
לכולם
##זוז
לכלבים
דז"א
##שועה
##עית
דמוקמינן
##עביד
מהראוי
מהרב
מי'
משונה
וגדול
פרישה
לסוכה
במכות
יושבי
הרז"ה
##תיבות
אי'
שקורא
רגילין
ניתר
מההוא
שעבד
דנדה
במתנת
שנוהגין
באפי
למאכל
ישבו
מאהבה
הפסיק
מחמירין
לקיימה
מטתו
הו'
##וסים
##גלת
##יתום
בשלש
##אות
אוי
רבנים
##טורי
כנסיות
##פאר
##וסרים
ואדם
ויעשה
דפסיק
איבה
הדיינין
כופ
דאיש
וק"ו
רד
מקבלת
אגד
קידשה
##תפו
שנאסר
##פכו
##כהאי
בדאיכא
טבול
סאתים
##נ"פ
כפרן
##יומו
שנפר
בלחש
ב"נ
##שמואל
בארנו
לשי'
##רוגינוס
ס"פ
ביתך
והראיה
לפרוש
באיסורין
וכאילו
##דימין
נודר
##פייס
רות
##לקלו
תינוקות
##ננה
ותת
ורבה
זוג
להחזירה
עבודות
זימנא
הועיל
תשלום
מצרא
תענו
התערובות
נגיעה
ימכר
החזק
ודור
בארבעה
קץ
תלך
מרישא
##לתא
אדמה
המערער
דאינן
ירושת
מחצית
ההלכות
לסתום
##קעה
שעתיד
##יוקא
למלאות
המחייב
שנוהגים
ובמו
החיות
ביהכ"נ
הריב
בזאת
וסייעתו
דנפל
בצלאל
מתירים
פתא
בשש
ברך
##עדים
לדידי'
הבחירה
הענינים
ושכר
מנכסים
הדברות
חציה
והעל
התירוץ
טעו
##חון
##רגיש
תבעו
שאבד
במדינת
דשמעתין
דרכן
והעדים
שכא
בישיבה
מסכי
לולי
ובתוך
משלה
הזהיר
מונין
תרנג
בזוהר
השבה
ועפ"ז
בושת
##זקי
ואחרים
מהימנא
העזר
קמאי
באדר
בעא
שמיא
אבק
וקיי"ל
ת"ת
אפות
בחטא
וצו
##עתיד
חפצא
כחות
לשור
האבד
דמיון
לירד
##ידית
לבלתי
החמיר
שהאב
שדרשו
משים
ומכיון
בעשיית
דיותר
הערל
##גר"א
להש"ס
מכוסה
צדדין
הרמז
נכנסין
למינ
במהרה
ואר
##לוג
הרצ
יבין
ה"ח
בקנה
שיטול
הארוך
פוסלין
דכו"ע
זביני
ובתר
נבל
עורות
קריעה
מבור
לחליצה
הצי
לשרוף
שכופין
מיימוני
##ייבי
דרשב"ג
עיקרו
החשבון
דמקרי
הגדר
ואכלת
יעלו
אלהיכם
לעצמן
למתני'
הסיבה
בפרקין
דאל"ה
וירד
שן
במשכן
נכל
קדימה
לתינוק
##סקנת
ליא
קט"ו
שסתם
ומלא
ימכור
וצר
לנר
##קלין
דהעיקר
דמטעם
שרצו
שחי
מנות
דיתמי
##ערו
דאתו
מגולה
אחיות
##יימת
דאפ"ה
באתרא
כרו
מחייבי
או'
למוכרו
בבע
השיבו
עוקר
פיס
בכונת
שבתוכו
בחודש
שבשעה
הנאתו
שהמת
##פיא
דרבינא
##רגשה
והוצרך
מבת
להנ"ל
שלשת
פניה
##ימה
ומשיב
משכב
##לתו
##כלא
מתוס'
מילת
##כו'
##כחשה
להסת
ואסורה
החור
##מגם
לאוכלו
שני'
ושאני
ועכ"ז
נחלת
להשוות
##צתי
בח"ל
##פוטרופוס
אפשרות
דבשעה
חידש
ותמהני
דכתיבנא
המחובר
לרמב"ם
תלמידו
להעל
באבן
איפשיטא
ההוצאה
ובעינן
מחיל
ככולו
מצריך
ידיעת
ביתא
החלון
ונתע
מוקף
בהדיה
סמיך
הולכת
##מו'
דלשיטת
דמה"ת
פרקים
לפירש"י
מרבו
שיפרע
תינח
המבול
בסקילה
שאחזו
דליתיה
ירקות
תעלה
שמברך
לכה
נורא
נער
לחבריה
בהשגות
##שוק
שישבע
מרג
ספקא
ההיזק
ההרים
סד"א
הודאתו
בקדרה
סק"ב
מזב
והתוספות
דבכ
רי"ו
כביצה
##זרין
ואחריו
צפו
בשמא
האיי
הקצר
וחול
בתרתי
שי'
התלו
לשעבר
כתו
שמתוך
דל"ל
הסוכות
ראבי"ה
מיפר
##יז
דכלים
אוסרת
דעירובין
הסכך
פרכינן
נשבר
##רוגרות
מדרס
רך
מצאה
משו'
ענה
המתנות
יאשיה
שרואה
לאמצע
בעיניהם
הלידה
ההק
הגרע"א
##טיש
##זהרים
##שתות
ק"ג
מעומד
ודלמא
נגזל
##חס
ואכן
בכולהו
הגזול
תירוצא
מקשינן
דא"ר
פליגא
ליהוי
הזוהר
##קלל
במראה
##ינור
ודחה
יכתבו
דמתיר
##צירו
##נאים
##וריא
לחיי
חברתה
בפ"י
דלתות
##נו'
שמניח
תמורת
##דרגה
##דורי
הלימוד
##ציל
אחותה
והט"ז
מחלוק
מעל"ע
לאומרו
ממח
סק"א
הרמ
##פשי
דהיו
ובשביל
##דישה
ראות
להשיא
לרבותא
לברכת
הספיקות
זוכר
ומהר
מרור
למיעוטא
ב"כ
מנח
מנעל
ממשנה
כרתי
נועם
המניח
וביה
דבגמ'
הנאמר
טהרת
דמשכחת
וא"ו
עונג
בעומד
שהפ
נבד
ודח
דבשר
##מצינו
נשרף
לאכילת
שיעורו
יגבה
משלמין
דתי
שנעשית
##--------
לזרוע
מאיס
מהימ
וע"פ
בחדר
להסביר
כרחה
ההפסד
וחקירה
שחסר
##פרש"י
סמוכין
ומצינו
אלקיך
##יאות
דקמ"ל
##טביל
ונתתי
דארעא
בתקנת
זוטא
יתקיים
בשריפה
בסתר
ולפני
בחתיכה
רשו
##כחו
והרמ"א
והלאה
כתי
הכס
סבה
דמתני
ברש
במצה
סעד
שנוגע
ברגליו
והענין
כב'
בסיני
ה"י
לפ"ד
שנותנין
לקוח
דאמור
דמשו"ה
##בירות
הוכרח
תהי
לנדון
כרוב
להתקדש
נראית
ובמש
מחת
##וליה
מעולה
לבתו
ללב
סייעתא
השיגו
חיו"ד
##ב"ץ
העבר
דכ"ז
בצי
ישראלים
שהותר
התיקון
וגרס
בעניי
מוכרין
ממעטינן
##ובדי
מאליה
זיבה
ולאפוקי
העפר
מסקינן
שאתם
המשל
כאדם
תקרה
חוששת
יעש
שצריכין
גנ
דהקשה
?!
ואמ'
ומהם
עלך
נאסרו
קי"ט
הארי
היחוד
האבנים
##נוהו
שנתגייר
##שרי
ונפקא
לאוקומי
##למנה
התירה
לזון
שלקחו
באמצ
יוחסין
##גרות
##ושתו
אפס
ידיד
כהלכה
חתי
כיוון
תחזור
בקבלת
שנהנה
חלבו
יעויין
דספיקא
טבעת
##יבים
הקריב
קנסו
תבשילין
וחשב
פר"ח
יושבים
גרושתו
שלוח
לא'
העמיד
פריה
קטל
תורף
לדברינו
במב
כאב
הושע
לסברא
##גלאי
בפ"ט
ורואה
חתנים
יבר
בנ"א
עדותם
##גז
החנות
##מדנא
##צוצות
קרית
בעיניך
##פצא
וממה
חסדים
קנאו
הגבהה
עיירות
לעילא
מחודש
מארבע
##רעי
שנתבשל
##חומא
בכשרות
##חול
וחז
לתרום
שקונה
להראב"ד
במילתא
הרגו
מספיקא
הלואתו
דקדוק
בכרת
בשמות
##תחזק
יתו
הסמוכה
##מנתו
דשיעור
חצרות
שחילק
שרטוט
חשובים
מרחוק
ומורה
מפרי
שכוונת
צבע
בפרוטה
##גלין
נפקותא
בניך
לרשותו
וישמע
מתייב
דכופין
תז
דר"ת
דמה"ט
למלאכה
אדומה
מפה
והנכון
מקילין
ובשב
אסיפא
וחזרה
זכין
דסוגיא
זרו
##בורי
ויורד
דרכה
דדלמא
מאמין
מרצה
והמטיב
דאינון
לאר
מטא
בעית
ואביי
קדרה
חומץ
##יאו
סעודתו
##הדי
##יבול
האופן
דרכם
דסי'
אורחיה
במילי
מאתו
הבינו
דאוסר
ושור
##בעיא
##יישוב
הוסיפו
כמאמר
דתוס'
טפל
עיגון
הימ
הטו"ז
שפירש"י
מפולש
הויה
שמחמת
מקראי
תאוה
הטבעת
ותמיה
הקידוש
##נעה
בשבט
כבוש
הלזו
בפסול
לכת
שברי
בנקב
כשהיו
דמעשר
האתרוג
##עתק
הסך
ונתנה
##ולחן
##תירים
ולהע
חברי
וסיעתו
הרחמים
לבבו
ופתח
ולפנים
##ט"א
דהרי"ף
הושט
ישתה
דעכו"ם
חובל
הדרי
גירש
המזונות
##ליץ
זולתי
התביעה
מאשה
ככלי
הזכרת
רו"מ
##גחה
המוקדשין
והתיר
באותם
##שכחן
מלאו
תאו
בירושה
והקב"ה
דמכות
ומותרת
תשובתו
לדי
שהאיסור
דאה"נ
הזכות
דמילה
##וסף
להתקיים
גרסי'
בבי"ד
במיעוט
##חומרא
קאתי
##פיח
שמפני
יפלו
אוהל
לריעותא
ביטוי
אפותיקי
ולדות
בפרו
עזריה
השבע
בצורת
ומוכרח
דאשכחן
שומרת
מטרא
דחזקת
##כובה
למחוק
לפמש"כ
##כריח
הביעור
החתימה
ממכר
דממעט
##פוש
##טהורה
דבידו
##יותא
זולתו
##יקוח
והסכים
חמישי
שעשאו
##פסידו
וכנגד
משנתינו
תבלין
וסי
דאר
בגז
לנ"ד
בשפתיו
##דרו
והשת
חתו
##ענה
נעשים
תרין
וטור
שדחה
מחשבות
הרה"מ
##לופי
בשטרות
עליונה
תוקף
אינך
##חיב
וה"ק
##פסח
להתכבד
שחיט
דנותן
הרגיל
באשתו
באז
לשאת
ישרים
##וה"ג
בשטרי
שימור
וכוונת
דפנות
יתבטל
קונות
##סופר
הציצית
לגדול
מסקנת
בראוי
נדע
##כשרו
##ושיות
לפ'
בתריה
לעזר
##תוסף
דמוכר
ופליגי
##קולא
בארבע
שמכרו
לחזקה
בון
היכ
במקור
שנגמר
##יברים
כמוך
הכרת
גבאי
בנהר
הטר
שתות
פעולת
##חאות
הקש
גאו
דגמר
שאסורה
והניחו
בזר
לאשר
נתת
מכשיעור
שרצים
גולה
בהפך
ולדידיה
דשמע
##חישו
פאר
קום
שסמך
בלה
מל'
במכירה
וקני
אבד"ק
כשלו
צרור
בראיות
האמורה
##בישה
כספו
##שאלה
אכתוב
החסרון
מעשי
מר'
לקדושין
וגמר
##צלו
דהנך
איז
מפש
פסולת
שנגח
דנים
כלו'
מרובים
הגדה
תפסי
##רגו
לוקחין
בתירוץ
וישלח
מהתורה
דהשו
ושמעתי
מירושלמי
##ייש
##פו'
הגניבה
בירוש'
הנגע
ולמחר
דלפי"ז
לכולהו
לכבד
כת"ה
שהעתיק
השמחה
##סוכה
ולק"מ
##יתין
דהי
דמסתבר
שעכשיו
מידם
וחומש
##צך
##שובו
ודרשו
בגוונא
##ברתו
שיצטרך
ר"ט
##צטרו
##פלתו
קדים
ומים
ועפי"ז
מאכילין
##פילת
שממנו
וכשהוא
מאכלות
ולנ
כיבוד
אשמועינן
בדרישה
החלה
##נותא
דהרא
וש"מ
הגיה
צדוק
##צועה
מעשרות
בק"ק
דמציעא
כותים
אול
כשרין
##מירתו
ספינה
ישי
ונתחייב
דחלב
##ינוח
שפע
##צי'
ואור
התחום
המוח
נפרע
פגי
לגביה
יכיר
ק"כ
הקטרה
והאיך
הקשר
דבאיסור
בנד"ד
##00
המופלג
דהקדש
הפי
בעיניה
##מלט
ולאח
בדפוס
##פסלו
##יראה
יציל
יושבת
חומרי
##עובר
יתיישב
דא"י
נכרית
סוכות
תלוש
##תהו
ישכח
המעשים
##חמו
##ולע
ברצונו
לדיין
ודעי
והלכו
נכר
איתתא
רבר
לאית
במילה
לציון
דנש
##ינשא
דהירושלמי
##רובין
הדלקת
##קוף
כהרא"ש
יחיאל
הנדחת
##בורו
ולוקח
##ילהי
וחותם
גבו
##קופה
שישב
עמדה
טוענת
תוד"ה
שעבודו
סירכא
פשוטו
באמר
דהאיסור
נראים
##נ"א
באלה
במ"מ
דכשא
הודיעו
מיי
##ועים
אופנים
שהולך
ונרא
ול"ת
ואכלה
##ע"ה
החינוך
העתיד
דתנינן
במטה
בריתי
בעסק
ביוצא
##רובה
אחזקת
כלאי
השופט
##פרשי
בסי
##יובא
למלחמה
דבבא
ומכח
מבו
קכ"ט
ענן
ש"פ
##וייה
דריב
החלוקה
לקדושה
להנות
שבצ
##לקלה
נמסר
סיום
במלכות
להטרי
מתשו'
דק"ק
עיניהם
קמ"א
און
טעונה
שהזמן
שבז
לחודש
בעבר
החולין
##כותב
ולתת
רושם
דניאל
סס
בקבל
הזרוע
מרבי
הרחקה
##כלים
היהודי
לרש
יגיד
השלמים
אורחים
ארצות
##גיעה
##פסקת
ומלבד
וכב
לפתח
התלמידים
תכף
##דלות
יפות
והנו
ברפ
כתירוץ
ערעור
ובשם
תועיל
וישא
##כחישו
לתירוץ
וצ"ב
טרוד
כוותייהו
הדרן
כהא
דאלמא
חדשיו
מביאים
הערלה
פח
נפק"מ
הרע"ב
רצתה
ובקי
כדמסיק
עמא
פלגינן
לשונם
למנ
יומי
דתלינן
מליח
מורדת
בקיאים
העמידו
משובח
דאוכל
ותהיה
השכיר
מתוקן
ציד
וקרי
ואמרת
יאודה
##דעת
בשתיה
##מידין
מגדים
כת"י
שמיע
במקח
העריות
##כ"י
תמוהין
##ירוצו
וחזרו
דר"ג
חשד
עגל
שבזמן
חיזוק
שיקח
וריש
ושכח
פוש
##ירשה
ליס
##ופרים
המחברים
##שלמה
מבי
קנים
בשגגה
שמיטה
##תייע
בפיה
התקדשי
וזק
בהול
השט
לסופר
דתח
##נהגו
מנוח
באבר
הזמנה
פנו
##דף
כמיניה
מוה'
ול"ד
הריח
דכתי'
מיין
דאוריתא
בציר
##ונתן
שט"ח
הערות
מזמור
חת"ס
ושתיה
ק"ט
סתומה
להחליף
##פאים
זל"ז
ישלח
ששני
ופירושו
אפק
הל"ל
בתשובתו
גמרו
וטר
דאינהו
מימיו
לס"ת
##סאות
הערה
ותיק
חלול
שפוסק
שטו
##קוח
ומוכר
ש"ץ
המשתה
בכיס
שבבית
דמקבל
וצריכין
חא
##ימון
##קיי
וסברא
דשביעית
##זרות
##וקשה
נישאת
דדווקא
שצריכים
והוו
הקמח
והאמת
##בץ
הקצוה"ח
סק"ג
כש"כ
בכ"ש
מגוי
ח"ד
קלות
וכת'
##מיעוט
דמתנה
ולל
ושתים
##טיה
חילקו
##קטיר
הדעות
במעילה
שיראו
דחק
חוזרים
אדרבי
ודאית
רבוא
המזרח
מחזי
יסבור
דפלוגתא
כקרקע
לקיחה
תקנות
##בחין
לימים
כשמש
נגעים
קודשא
בבדיקה
ושותה
הטל
ומשל
ויור
ני'
שישנו
מעביר
מוג
מקחו
משפטים
דירתו
לגו
וחמש
דמיהן
עמוק
##רהור
מתקנת
וראי'
השביעית
##כאו'
צ"ז
##זלזל
בערלה
אחז
וקורין
המחנה
הפנ"י
מגמ'
תשל
ואנחנו
נבילות
##פרס
פרח
במלחמות
חמד
רבני
##בדוק
שמלא
נתעברה
אצלנו
קמה
מוכיחות
גלותא
לברו
##ביך
דחשב
נבוא
בטוח
ונשאת
ולכאן
ופליג
דאמרן
דבשו
אהיה
למנהג
לסבול
האמינו
נכנסים
וכח
שבטלה
למכרו
ליגע
הויין
גזה"כ
סורר
ומכש
להקרבה
המערב
משלים
הילדים
צרורות
ציץ
חנות
אלפי
ותע
ובמדרש
הניחא
משתה
הקפיד
בגימטריא
##דוק
שבחו
כישראל
כפות
משטה
מראות
דבגמרא
מצטער
בתלוש
קוץ
##פרד
המזוזה
שגנב
להכעיס
מדוקדק
וצע"ג
במאה
דטומאה
דזב
דמביא
##נדב
שהאו
דאבא
אמצע
ופעם
קאמרינן
שתיה
רגילים
שעברה
דלמאי
מסיפא
מרובע
רחם
ואות
המהרי"ט
ללמדנו
לעיכ
להר"ן
אומה
אלול
יבאו
נפקע
שורו
לשדה
שגר
חמצו
##זרוק
הנית
##יליה
יומם
שתפס
סמוכה
##מ"י
להיכא
ומחזיר
דמברך
מאמינים
כלאחר
ליחיד
מדר'
מחברו
כפרש"י
בסיס
נקל
דלכל
שחין
וזכר
טיט
ובש"ע
##נהר
דבז
תרומתו
לצי
ממעות
שתאמר
להכיר
פרעו
אונן
התש
במסירה
כקנין
לעצמי
לצמצם
##פרסם
ראוי'
חכמתו
יני
ובמע
ודרשינן
אמ"ה
רעב
##מחו
דחלה
קוצר
הנגזל
בזמנינו
להרי"ף
הבהמות
##כירים
ומוק
השותף
מאידך
פסוקי
ותאמר
דמיד
נוטלת
הוכיחו
להטות
##בערה
##מטה
ואנא
כלהו
ועפ"י
והאחרונים
תעמוד
בתוכם
דשות
בשלחן
דעדים
וקתני
לטרוח
משיעור
##ודאת
##רבין
הנולד
בפ"נ
מל"מ
דג"כ
שדן
שנתערבו
במשנתינו
##מלי
שתי'
לזרים
שבסוף
מדובר
בסימנים
גופייהו
שטעם
ונשים
דגט
הרשד"ם
דלוקח
##בודו
הר"ח
נדות
הנזיר
##ליפות
הפעם
להרגו
ששמעו
אמונה
שהור
למקו
##עירי
דפ"ק
טהורות
שאכתוב
לנש
הכש
ויוציא
המנה
באס
שבטים
ובנ"ד
מלשונו
##ערת
ובשעה
##והל
##בוח
במספר
סק"ד
יצו
##קעו
##לוף
תמהו
שהמוכר
במקומן
להמית
ורמב"ם
שהק'
נתחייבו
כחדא
##צטרופי
שארי
שכת'
מסירת
השלשה
##יל'
##יתון
ובלי
חנן
##מוקים
מעני
מופלג
ושמר
חסרה
ירצו
בארעא
יצאת
לצל
##סופק
דמהאי
במשנתנו
ששכח
שערו
כרחין
למולו
רחוקים
##גוזל
ידועה
תפו
דגוי
לכבודו
חביות
ק"ז
שיוכלו
במחנה
בחוצה
רבוי
חלוקות
##מסר
ויהיב
מעד
איפוא
בהחלט
הבאר
ולאכול
ושטר
עזר
בס"ס
שגזל
קודמין
שהייה
ולרבנן
מתפללין
שנבעלה
##דעי
קדושות
משניהם
לחצי
דמב
ופשט
מורא
התה"ד
להגביה
בעירו
היקר
לתשמיש
דמשה
והארץ
##כוש
ערוכה
אצלינו
ימותו
##ידוי
עוברי
בזב
עמדי
לאז
פסקה
במכילתא
ונסת
##שונם
לכי
תענה
לפועל
ביחוד
וידעו
תשי
##ינון
שוו
למיכתב
בזוזי
ואהבת
דדחי
בלחם
טבילת
במק"א
שנשתנה
מונחים
הנדון
לבבך
שטח
בריבית
##ילול
בעידנא
##מתן
ארצה
הכולל
כשנים
שלשון
למלקות
##טט
מסרו
לשיטתיה
הערמה
השפ
דכולה
##כלין
ומטמא
ולטע
##כשיט
השעיר
בעניות
והפוסקים
למש"כ
גפן
דנפיק
שבאותו
לעניות
הבט
חצירות
לשכר
שעם
בלבוש
היפה
יציאה
והגיע
ומסר
בקצת
כוליה
שיניח
וארבע
וידו
##לוקי
שנסת
ובתשובת
מלפניו
ביורה
##חיצת
והב"י
זור
מיאון
לעשותן
בכלאים
פטורות
נענש
דאליבא
היח
שחטו
##נקס
##כמות
האמנם
ביבי
וטען
שהשטר
ריטב
תרע
ולבו
ישחוט
הבכורה
כבני
דאיתיה
ריטב"א
בכורה
רה
שעשא
לגירושין
שישאר
להביאו
נטמאו
מקואות
המיקל
נקבע
כתיבי
רעק"א
למשנה
יירש
הנידון
ריב"א
שמדברי
קצה
אחריך
נוחה
שהוציאו
##חסין
לוט
נמחק
באלמנה
להוליך
לדוכתא
להפרישו
בוק
##ש"כ
ושתה
ערבה
קנ"ד
##גולת
##נצר
בק"ש
גזירות
מראובן
ראייתו
##טהרו
והלוה
##יבש
יהנה
ראשונות
מנע
וכאלו
##חנן
ומלח
בקדשי
בהלואה
למעל
נפלאות
ית"ש
##וקימתא
עילאה
לרוח
תשיב
דביום
ובעלה
מקשים
ד"מ
קציר
מטראני
ההפקר
המרחץ
מבוארים
אוד
זימני
##פינא
חתך
קצירה
כיו"ב
ואבידה
שהכ
דמנ"ל
זקנו
ומכרו
זביד
יקרה
אריכות
יקריב
),
ולמאי
לכשת
מאותן
העלם
פקפוק
ובדיעבד
ולהתפלל
הגבורים
להצריך
ממשמע
חללה
##חיטת
דאונס
דפיר
להתבונן
בתראי
ובבית
במ"ב
##פי"כ
לגלויי
שייכי
הצריכו
לאשתי
ולכתוב
בבגדי
יודא
בצפון
פשטה
בכתובתה
מכבר
הסלע
לטרוף
והתח
ובש"ך
טלה
להתר
יורשיו
##לפע"ד
מזרע
והמח
##ינס
##פשי'
תשמי
המינין
פי"ב
דהטור
המעלה
עיי'
מאחו
שאחרי
שפו
לעבר
פירושים
נמלך
מפליג
הצורה
למערב
פשוטים
אזהרת
ורא"ש
דאור
הי"ד
שרש"י
ישאל
דתמורה
הותרו
בחנות
במהרש"א
דחוזר
ומתח
ליפרע
סברות
שילדה
##ירם
צה
ברשב"א
יתברר
בלישנא
דשתי
רואות
דאחד
כר"ת
דה"ט
ולהא
פוק
מחאה
מחבר
לשלום
ודווקא
וזב
##חז"ל
מנהיג
לאביה
מקיימין
ששב
בחשבון
בהיפך
בנח
##פסידה
דר"פ
המהר"ם
האנו
הקצ
נעקר
דהר"ן
כודאי
לזאת
ניכרת
קי"ד
חדוש
בלוקח
מוקד
מטבילין
הפדיון
##מעטו
נתקדש
מהרה
הנו"ב
ישמעו
שמפורש
דצ"ל
##יווי
##צנו
פרנסה
אברם
הדרכים
##וחת
עזאי
ספרו
הגידין
חצירו
לתרוצי
לאבות
##פקיע
שהוחזק
מלכיות
שדינו
רחיצה
ידינו
הפירושים
ליורשו
שורות
מצווין
לר"ח
דשבועה
##תבח
שעור
##מצום
מד"ס
קכ"ח
מיקל
ולמעשה
וענבים
הכשרים
הכושר
אחוז
הכלב
ולימא
משמרת
שכמו
ונזכר
##מדבר
מוליד
לשלשה
ליורשיו
הנ"י
שהקדיש
בסלע
בחגיגה
צב
דבאו
אליביה
חשיכה
דוס
מבעי
ומתרצינן
מדקד
היטיב
דמטמא
נבלות
דלדידן
מסוף
בידיו
יחזרו
הבליעה
עסוק
##צלת
בגובה
דברכת
דידוע
איידי
כוון
דאבוה
רחמ
ביומו
והרע
עיסקא
שבשטר
לכש
שתע
להתעסק
##כדנצר
נקטו
אכס
אשיב
##זהרו
גאונים
ואמה
לספור
ריהטא
הנוה
גבוהה
ואהא
להכריח
והט
שהשליח
טענו
שר"ל
ויעש
הפרשיות
ריבה
בפסקי
אונסא
דג'
דידעינן
תפוס
במלת
דמזה
דמסת
בב"ש
##משלה
מיוחדים
שכאשר
##ותיהם
דגוף
בט"ו
נשמתו
שהתח
האמצע
וגו
לגא
דנע
##רש"ך
##בלונות
בזק
לנא
נידו
##גילה
בנחת
נדחק
מדתנן
יתה
הרביעית
השינוי
יהונתן
ובהמה
##וראת
##יומי
המפרש
לדא
באצבע
לקנין
היבמה
פרים
##משי
דלהרמב"ם
להזי
בסך
עבדות
סייג
##ולט
תוכן
שא"ל
עוש
דהפקר
הקורה
לגרום
מלין
כנפי
דתלוי
בנוי
כסוי
מרובא
##שלת
לרפא
בשמיני
אתמול
בז'
ליתומים
ושמחה
גומא
הנז"ל
##ויח
ועדים
משתות
לזכר
אתנן
שנפ
מהרח
לאפ
בספ
נלמוד
וא"י
##מוציא
##שלומי
הנער
שתתן
כתנא
ונאמן
##ובש
ימצאו
שנשב
דכלאים
דקרקע
אמימר
ומפור
איננה
לפת
##כולי
בעזרת
לקידוש
הכף
דכריתות
ושאין
פסיקא
הסר
ומסירה
זבחי
פוחת
במעשיו
##לו'
בחבירו
וי"מ
שמעיד
נדרש
שהגט
ארור
סאין
מירוח
ושמח
לבערו
צידה
מוהר"י
שא"י
##לקח
וחיה
תירוצו
חזיר
המוטל
בנכרי
כהני
ולדבריו
תד"ה
במכתב
שבעלה
ופירות
איבעי
ותפלה
דאכל
גבור
האומן
ריב"ל
דהבעל
שחש
מבה
קורע
מצילין
##חיית
מדרג
למיה
מאדם
##צוצרות
שהתוס'
באתרוג
כמים
לפירושו
ביח
הפש
והארכתי
##געת
##צאו
קבלן
אמורא
מוריד
ליורשי
ד"ז
##ילנא
באמה
ודינו
לצדיקים
הרעים
ורשב"א
חייה
צרעת
##מתך
ממזרים
חלקם
זכייה
##לוס
משנתנו
דרוש
שעי"ז
איוב
החזרתי
עגול
##חקת
דאינ
ושואל
בכם
##יה"ק
יפתח
##תובעת
דתרווייהו
כרע
תיקו
##טם
דהז
ההג
מאבות
נעבד
שעולה
יודן
גרש
וב"י
מלאכתן
דטב
לפרט
ש"ד
ברי'
מתחילת
##וביינא
שנותנים
המשתלח
בסעי'
בבמה
מועטים
לפרעון
שלכ
בהנך
יד"ח
ספרד
ועבודה
עכשו
בפטיש
מזוייף
לישאל
הדלקה
דקי
נצטוו
דמעות
והבאתי
מפירות
הנפ
בפו
בטיט
##יקרה
במנחת
כמשפט
ההנאה
בעצמן
סברה
##קוק
מתחילין
##פטרה
##טש
שאב
אלין
הלבן
עובי
בצדק
למיקם
##רוגרת
ויעשו
להתגרש
שילם
ובכמה
קפרא
דיעות
נגלה
וכשנ
זכרי
##לושה
ביכול
בועל
כשחל
דצריכה
יינם
ומפורש
שנאבד
##נקי
##ברכות
בהז
##קדוש
דלפני
מוחזקת
##מעא
בלולב
ונהגו
ובתוספתא
דגזל
ובלשון
ודבש
המורים
בטוען
להרויח
למחצה
גלגל
אחריתא
דפסקינן
בהיכל
פותחין
להון
בה"א
דקנס
מכוונים
מסכימים
משרת
נתון
##זקק
בגיד
גליות
פיסקא
יודו
##פצים
יכולת
מדל
חיצו
שהני
##שב"ל
מל"ת
וזהב
שלפעמים
דוחין
##יתוך
ורגליו
##תובעו
שירא
ותמוה
הידיעה
והחזיק
ול"נ
והכוונה
שואלין
ואפי
תמוז
גוז
וצוה
##נינא
##ניעות
דרמי
דק"ל
וחציו
בנתינת
##וסל
פירשתי
פתחים
בת"כ
שבתי
מוכחא
דמלבד
דעולא
דכתוב
ידיך
ירש
השדרה
הגי
קונין
בכף
שיעידו
להשתדל
וכהן
דלדברי
מוסכם
מלובלין
הרגלים
דכ"ש
יראים
תוקעין
וריב
מגופה
המצוי
משות
וה"פ
התשב"ץ
שהורה
שהפריש
דנ"מ
ביטלו
נמנע
דכונתו
עירבו
קי"ב
נשתמש
שחוטה
אשא
מהלכה
דבירושלמי
ת'
ברה
שהוב
חסרו
בשחיטת
ובדרך
ושינוי
למרות
תענוג
שנולדה
##גונא
הי"ב
##חרם
שמיעה
ובביא
##מען
דחוי
לדיני
בטלטול
דזבין
וה"ר
בעון
ששהה
לתנאי
דיהיה
בקרבנות
בטמא
דמקדש
ואידי
שהאר
לס'
החריף
דמש"ה
יורדין
להניחו
גירות
וקידושין
הביאור
הפעולה
צפ
תקינו
שופטים
ובשו"ע
דבשל
##בושל
שבשמים
בקערה
מקדימין
הרבני
לחודא
צורבא
זבה
##לוגת
הקטרת
והויא
ויושב
בדליכא
לאין
לקבור
שר'
בביהכ"נ
דלוקה
##לימה
יומין
מדרשא
שמברכין
לסייע
יצטרכו
מובנים
##בך
דתרוייהו
טהר
נחשבים
סולדת
במסקנא
קי"ז
שביש
בחייבי
כדינו
שנאמן
כזכי
שלענין
תחילתו
##נסך
אדרב
החיצונה
המלמד
פתחו
טומאתו
ואסיקנא
חלוצה
בשפחה
בדורות
הורי
רווחא
ליתיה
חיילא
נפת
לאכלה
##מימר
דלג
לסימן
##כנין
בכללי
בתבשיל
דבמה
מממון
קכ"א
לגדל
ופרע
שנאה
##תיחת
שמנהג
פקעה
שהעל
בשלהי
וב"ח
להיותו
##ריסה
בתשמיש
##נסים
##ציאתו
שכרה
לספוקי
ויליף
שיכולה
הדק
ימול
עמים
קבועה
הנוד
קי"ג
מדקדק
קי"א
עייל
השרץ
הוכר
ופוסקים
פתיחת
וש"ע
גחלים
##שיהם
שכתבת
ותורה
תסור
שונות
שבטל
לעשרה
הנכבד
התראת
נכנסה
שהרבה
בעירוב
עניות
החלוק
##לוט
##וארו
##מיק
מתנתו
שיכולין
כעס
שורפין
מצויים
עיניה
ובאי
חלום
ובנה
ראוהו
נפתח
שג"כ
מוחזקים
אדני
הדס
קס"ד
קושיתו
להריח
דהן
וניעור
בש"מ
##דוננו
##חזינן
לדבריה
##מ"ר
לולא
ובמת
בתכלית
מיפטר
ולדידי
בקשה
שתהי'
עגונה
אונסין
חתום
פרא
דלח
דגברא
נבאר
שחייבין
לריש
סגיא
דררא
לאורה
וברמב"ם
ויביא
חגי
וסגי
##חקים
##קדושין
דסברא
שולחן
שבקדושה
מארי
ואי"ה
השופר
בחומש
ויתנו
שהלכו
הסבה
להחשיב
דמועיל
אתינן
מעבד
דאכילה
החייב
האוסר
מעיים
וכדת
אפוטרו
צפור
בעניננו
ופי
החזן
יושבין
##ילון
הרקיע
בלח"מ
פרקין
עשב
בהעלם
##ירוצם
##נייה
הוחזקו
בפיך
##מ"ו
וארבעה
ברק
בשומר
נשתייר
חנוך
לירש
דגרסי
כדה
ואביו
לקרב
באחריותו
דאצטריך
פודה
ופלגא
יכוין
ישמח
המשחה
להפקיר
שלמי
ויז
השמיטו
להצטרף
##בריח
הר"ז
לריב
##זקיה
דסתרי
דשנים
העבדים
אוקימתא
מסי
שהרא"ש
##ייתם
מושל
לעשי
צערא
חוטי
ומקצת
אשכנזי
##כ"ה
מעשרים
בכגון
חפצים
תירוצים
סתו
שמורה
שמכרה
גבורים
ההולך
נשחטה
הלוחות
הנסקל
באמצעות
חזקות
דאחרי
דיי
##וסיפו
במצוות
ועושין
שיכולים
ישראלית
הרוקח
גויים
+.
יחיה
שבע"פ
##יובו
דה"נ
האהבה
דהול
התשלומין
חימוץ
מקדשי
דשור
##כולהו
החטים
מרבינן
הוסת
##שותה
כשיו
##ועד
טירחא
צדקו
ניסא
תמימה
המצה
בכרם
שגגות
אסרינן
ושבע
דלכו"ע
מאימתי
התומים
לאהרן
סו"ס
מהרש"ך
למחנה
תפיס
ישרה
רפא
לעובד
שמחלק
תחלתו
להנך
בהגהותיו
דחויה
פטרו
##ניסו
שהסכימו
חביר
קונים
לעיכובא
יקדש
אייר
##מורות
ורובו
לאחריני
ובאר
וכמדו
שמ"ש
ברביעית
יפסיק
לודאי
לבך
הפ"י
הרצון
במשכון
בשפ
באבל
מנהגם
##דובר
עולמים
המשפחה
וכש"כ
גיהנם
המתיר
יהבינן
שמודה
והבית
משתנה
נבראו
ש"ז
שביניהם
זרעך
##ידוע
מתענין
אמתניתין
החומש
רמ"ח
הקליפה
שאביו
פגע
דיאוש
##יחון
בפרישה
##טרין
יתמי
הדומה
להלוות
הוצר
תקע
ולפי'
עמכם
א"ד
##תק
לקול
אחדשה"ט
תתאה
מלאכים
##פעל
##ודשים
##קבות
ועבדים
פדוי
שרבי
הכרזה
##יבורא
בממ
ועדיף
מקרקעי
המודר
דרצה
דחצר
דבהכי
הירושה
דינרים
ח"ה
##זהרות
הואי
שתיקה
דפי
לפסק
במקומם
ובתשובה
תפלות
הקב
חלים
ערבים
בטבילה
דפרה
זצוק
##שתמש
ראוין
המתפלל
היודע
ת"ו
##בשן
דייקינן
שנין
ויבוא
##יטלו
שתעשה
##צווה
למיגזר
משניות
בחוה"מ
ש"א
ובב"י
##כסון
דעושה
##טתו
לפרנס
הקטורת
אוחזין
שיתר
המראה
חשדא
שבממון
גאל
העוסק
פרסה
משוך
ושפ
שקיב
וכיצד
שפתים
לקרותו
ושמה
ופרכינן
ילפי'
בר"ש
ההול
שדוקא
דיוקא
בבלי
יקחו
חזינא
טבת
בחובו
וחכ"א
ותפילין
טומטום
ויען
ציווי
כתבינן
ובלילה
ושו"ר
לבי"ד
ופרי
המגיע
שנמצאו
נתבשל
גרשום
שדרכן
עלאה
לשיעור
אשור
לאמו
כאו
##חקרה
החומה
דאקני
להקטיר
וליח
הגבורה
##כתי'
ולרבי
שבשביל
שגמר
##יומא
מאחרים
דמלכא
ולולי
הרעות
בחנוכה
יתעלה
וצי
##חינה
ועמדו
החתומים
ששייך
זריקת
האריכו
+/
החיה
שעליה
##חליט
תשמישו
שאולה
הנזירות
דעבידא
פניך
מיטמא
##ופנים
בריטב"א
לברורי
##זקו
המקשן
חמר
יתום
הטעות
דב"ה
נהפך
להשתנות
מהרש"ם
בכולל
האמורים
מ"ת
בקונ
הקרום
##ידתו
##כ"ו
ממש"כ
ויניח
##צטרי
בערוך
##כנסה
להוליד
וב"ש
למדים
ונט
דמיעוטא
שנתגרשה
שפתי
שירצו
ואכ"מ
המפתח
קשי'
חנניה
יפלא
להאכילו
לינה
##ינוקת
הציל
משיג
##בעינן
מרש"י
ואלא
מתגרשת
ושו"ע
תירא
##כבי
גזלה
הארצות
תמו
אריס
דחיי
##קדו
מתפרש
לפרש"י
בתשרי
מגדל
##גית
##ריע
להסתכל
הדת
דחצי
ובמ"ש
היבום
רבתי
מדרב
בתור
ודכו
דלר"מ
מבקשים
שחוק
כהלכתא
##דוף
האלקים
מתקיף
מלאכול
וחתמו
תבין
מבד
הכפל
וזבין
אתך
היוצאים
מלמדין
כוחו
תהיו
שקראו
איילונית
והב'
להנצל
ביה"ש
חום
זורע
יואל
מפרשי
מפרישין
האמונה
בחרם
ונלע"ד
דשקיל
פלפול
התחייבות
והפרי
ולקיים
הצמר
וישר
שהגוי
המחמיר
ששית
בקביעות
ואתו
דגזרו
מנורה
בעושה
דשמיא
ולהביא
##גליות
הכהונה
חזון
ואומרת
טבלה
לילות
המועיל
שגו
לאנשי
והתחיל
שהכניסה
ופת
ההכרח
ציין
##מינהו
היפוך
דמוציא
כולכם
ולמר
להל
הקט
השמיטה
הספרי
דלמאן
מפ'
תפסה
##פטי
ולשתות
שמתי
יורשה
התבאר
ששמ
לנחלה
ונפיק
דקאמרי
הנאתן
נתיר
למדה
הנתיבות
אלימא
##מלה
##צלה
לגזירה
הוי'
ללוות
בהכשר
ששינה
##יאבון
החוזר
שנמצאת
לפוסלו
כליל
יחשוב
קושי
הקודמים
חלונות
יכו
דהיתר
יואב
##יגו
דעצם
קללה
טוענין
מורים
לקצר
נוי
##ספו
יששכר
שמם
ונפלה
ומתניתין
בדרום
המוש
סק"ה
מתייבמת
ישיבת
שוגגין
ושבועה
החק
דתרתי
תלין
פתיל
זקנה
ואכיל
לעוף
קדושתו
צורתו
##א"ז
וזכות
נמצאים
היתרא
##ופני
לנג
בחות
לסכך
מפיהם
לצע
יקרב
עבדא
שנהרג
גידל
בואו
כב"ש
##נחיל
לקראת
בפירש"י
דיעה
שה'
אפ"ל
דאמרת
אהע"ז
מושב
להרע
השני'
ריקם
שהכניס
ברשותיה
דלפעמים
מובהקים
##מאתו
מזכה
ודן
הקבורה
##ונתה
##רגרת
זימנין
נותנו
נבלע
ומצאה
לחנ
ר"ס
##ברכים
##בורג
מגרע
ביאתו
תעניות
שראינו
##חרו
##נשו
##יבין
##רוץ
החתם
##שתני
עבדיו
הלוהו
הביצה
דנס
ותימא
בדוקא
שרמז
יחסר
שבעיר
בקשר
להכריז
##כוה
##סהו
לבעול
וההוא
##סומי
פס"ד
מלאים
שיתפלל
העליה
##כ"ג
מתקדשת
טובל
##ינתים
באותיות
שהט
דאיהי
##פיות
כדאשכחן
כגו
שהרו
משכנתא
בגירושין
סמכה
לפלפל
נתונה
ומורי
##צונם
שתש
הרגשה
מרק
##ברכת
מסוים
שמצאו
בדיינים
##מוע
דאלים
בריוח
שקלי
הצדדין
##זורי
##חלתו
רעך
בכונה
שלמטה
גי'
העסק
בינוני
מחיוב
חותמין
חמירא
הטמאים
תער
הבועל
##ריהן
##ע"א
וכשי
דברי'
תהלים
כמאה
ובאותו
גוסס
ההד
מחייבו
##ליו
וידוי
א"ב
##בורת
האומה
##פיפה
בטיב
מ"ק
##דשו
שימוש
וכדכתב
##לוחית
ונעלם
תשמור
השבועות
ושאינו
גו'
האחריות
גול
##משת
שהניחו
העדר
בתפילה
שאה
##כשירין
ועש
שכשה
המאסף
זריעה
##נינהו
בפדיון
הסנדל
המובה
הנהוג
ומסתבר
שעלו
וזמן
##מ"מ
בחינות
לשות
שו"פ
מזכירין
לבונה
##פקידו
ממיתה
כהך
כיבוס
דאו'
##חתיכה
נזקי
נרא'
שבכללות
למיתב
הבלוע
מאכילת
צדדי
גיורת
ובירך
שתירצו
##כנה"ג
מקצתן
מנוחה
דגזרינן
לדח
וסמ
ואך
שלוחים
בשלח
התהום
מרחיק
דנשבע
לשהות
אנה
בתערובות
העלו
הרב"י
ונקבה
בולע
נאנסו
חייך
סם
שהזיק
במיתת
שומרי
הרוצח
התחתונים
הלקט
ותלמיד
כבשר
הבה"ג
לכבות
הב"ה
הנט
מאירות
בדינר
בח"ב
רוטב
קושייתו
גמיר
דערכין
פשטא
ששמעון
וכהאי
גירשה
אסא
אקרי
נ"ע
מקרוב
הלשכה
ובאופן
שהמה
הבעיא
##קוס
פו"ר
הבע"ד
נתמעט
בלוע
##עומד
שיבטל
פוסקין
##ציות
מתכפר
בחפץ
לתקנו
השבט
##יכתו
מקיף
שויא
ומחל
דבעיא
התקינו
טיב
אבלים
ובכ"מ
דהראב"ד
מקרבן
כנף
ימש
הועילו
קכ"ז
ש"צ
כרצונו
קרחה
דטמא
הגשם
ובהיות
מכביצה
לתלמודא
יעביר
וז"פ
שהגיד
ואנשי
ובחו
הנשבעין
ורגלים
התערובת
כיבוי
ניזונת
וחש
##קראי
שהשם
מוחה
מזויף
##ננים
ואוסר
כלן
החלל
דסברת
שכנגד
שלעולם
ביתה
לאחת
טוענים
מועילה
שיכתבו
לשיטתם
##ראשית
בגניבה
טמאות
מקריבין
##סוע
בינינו
להבחין
בגידין
החזירו
שהביאה
לכוון
דלרש"י
בלע"ז
עמם
שארית
למזרח
הנערה
דאי'
באכיל
##נאות
לסיים
קולות
##ושך
מונע
דהרמב"ן
טבא
והמים
בסופה
קוראים
להסוברים
המצרים
מציאת
לאנשים
##טעות
פוגם
ספירת
שהחמירו
וגל
וגב
וקבלו
מטומאת
##שארים
בחבית
הקלף
דערלה
בצינ
בבחי'
לחפש
והוינן
שהמלוה
עיבור
קדר
דבשביל
השה
בתירא
דירת
##עתן
לירא
להודיעו
מונחת
נזקין
הצל"ח
עינא
##ידשו
לגט
המסור
אוצר
הקרקעות
מעברין
המאה
השפע
בדופן
מוצ
דדינו
ומנ"ל
מר"ן
דתלי
קיצור
##לוים
##רבת
הת"ח
ותל
ולהלן
##ריפות
לקל
##כנא
ומור
מעכו"ם
הקרבה
שפירשנו
יחידים
##גנון
הקריבו
שלושה
##דעא
זיקת
זורק
יזיק
הרחם
לכ"ג
באומרת
לעצמם
כהודאה
##פית
ושתק
פיקוח
סמכא
##ודאתו
יתחיל
ובעת
ברוחב
לייבם
ולר"י
ונסתפק
קטטה
##נעא
שניות
תוכו
עבדך
בצדקה
עדת
יחלל
עס
ליתמי
##מכוס
רמאי
הקן
דון
##יר'
##חררו
יתרון
שמובא
יפרש
מלוי
הנדפס
ליורשים
להוציאם
פיל
##"פי
משיאין
דליהוי
מסדר
דמסקינן
האמיתי
שמתחלה
ממק
טעונין
דוגמת
לנכסי
יסורין
השגה
וסתירה
הנדוניא
דברישא
עוברה
ש"ב
ימנע
בא"א
##זורק
פתאום
שנתו
פסלה
השקיעה
מתענה
שמתח
ונתח
כנלע"ד
סמ"ג
##דינן
דמפורש
אפשי
מימות
רבקה
הקדישו
##בורות
איתנהו
גאוני
בת"ה
וילפינן
הטענות
מעצמם
נוקשה
במתכוין
צח
למשל
תו'
כתבת
בל"ת
שייכים
##קבה
שמתיר
ומגיד
לתובע
עניין
שאמרת
שדך
לכותל
אחוזה
נצטרך
וחטא
##חהו
דשינוי
ששכר
מחצי
משומד
בשנ
לכס
וכדמשמע
דשוב
ימתין
הנשבע
##שבח
מפע
לעוה"ב
הענן
נתבטלה
שתיקנו
דקב
הגזל
לציין
קרבנותיו
דהגם
קיבול
וש"ך
שהמנהג
##מיהו
##דך
צפר
והלוקח
שירדו
ומהר"ם
מחוברים
שולט
קינוי
##ניך
שינויא
פרנסתו
הבישול
נקודה
רשב"י
משכיר
והאו
במתנות
להבעל
להורגו
מתכו
יאות
קי"ח
שמתפלל
דמכיון
בבתים
כשית
שיותר
ציוה
למיעוט
העיבור
מחוקק
מצטרפים
דיהא
דפרע
וכדין
בחמשה
נתכוונו
א"ז
הפקיר
ונעשית
ורצונו
##טעו
שוכב
##נהגה
ארי'
דרוצה
כ"ק
קטורת
תרנגולת
למשמע
הפרשת
לנוי
ביוקר
מהגמ'
לאלה
##ניתי
דעדות
הצרה
בחזקתו
משאת
כגירסת
##זאת
למדרש
שמעולם
נדוי
לטעום
שלכאורה
וקנו
גידולי
הבעה"ב
בשוחט
##שורוש
הז'
הי"ג
מרובין
דעומד
קומץ
קולון
שהסכים
בורות
הגביה
מדברת
מתפללים
מקורה
בהפ
חיטין
##ב'
שמוכר
השומרים
ואתיא
##יימין
מיעט
ארכו
חצרו
החורבן
##מדם
והנלע"ד
בתערובת
שאיתא
שלמדו
מקשי
נתערבו
מהדרינן
ביהמ"ק
כוללת
ושייר
רובה
##כיהם
ובנות
נטר
וקי
ומשא
דהאשה
קלף
דוגמא
יזהר
ש"ר
ומתי
חבילות
מדעתה
ברכתו
לקחה
ורמז
##וך
איס
ושאלו
להשביעו
פרוטות
למאה
##ראלי
בצדו
לויה
בנשבע
לקנותו
ומקנה
הנדה
תוכיח
שגור
סנדל
##מהר
דחיה
מרד
נוספת
##הכ"פ
נכבד
אדע
##נדרי
יטעון
סבא
נפרדים
ונותנים
משלש
וקיבל
שיעמוד
שספק
##ריגה
לויתי
בסיד
וג"כ
דעשו
ופגם
להשל
עולי
מכבה
מכירו
כבעל
קפדי
שחוט
להנאת
דהדבר
ויוכל
חקר
פטרי
##יתיה
ומנא
ובקש
בקבלה
וכענין
##זבז
שנתא
לבח
שעשתה
ממאה
##שתי
והשיג
ובלאו
התכלת
כשהת
חנוני
מבעלי
ל"י
וה"מ
הששי
עצומה
יעברו
אמירתו
וראתה
סנ
##כרא
נבואה
מבהמה
מפלוני
תקרא
דמקרא
בבוא
וקם
לחטא
נמלח
מינוי
תגלחת
שלמות
##שותף
מב"מ
בנזירות
דיבורו
מפסוק
גשמי
נמל
##נטי
בכתיבת
מכחו
וי"ט
קנתה
ומדוע
שיכנס
לשיטה
לגור
סופה
נפסלו
בנע
אזו
ולמאן
מדד
האהל
##פסקה
לת"ח
נעילת
עלייה
דטריפה
המתחיל
שקבע
והעיר
לאותן
המחיצה
דהקשו
##פתן
לקהל
לעשותם
לחינוך
אלך
##בודתו
פצוע
דמין
הלק
נקבים
זוית
סתרי
##נדרוגינוס
בוקר
אלם
בחס
ועליהם
##פחד
שהותרה
דמסייע
הראי'
שניים
בקרקעות
##גיירה
מאיסורא
יכל
קהלת
שנתברר
קנינו
נימול
תעשון
והבשר
דנתן
##כ"ז
שמטמא
אבוד
חמותו
בשיש
באשם
לערער
מזונותיה
דפוסק
בחש
ונוה
מיחוש
סבלונות
ולחזור
נדמה
מאר
דכמה
כר"ל
הזיקה
מושבע
דלק"מ
טופ
ודיו
דחדא
תקפ
מהרימ"ט
דשלב
קריא
ל"צ
עא
קארו
תרעו
שמצות
וראש
ת"י
דעדיפא
נחו
בחמה
נצח
##תארסה
גנו
ובט
##ר"ר
וחייבין
ישים
##שביתו
גזולה
כפיה
עולמו
להניק
יתא
לצדיק
מפסח
מסקנא
זצוק"ל
והעד
יעב"ץ
נדוניא
##בשו
לבקר
דמקום
למנחה
ביעקב
##וה"נ
הקיום
##גרס
במעלה
דכת'
מגביה
יספיק
והוציאו
מריה
נזיקין
וקבלה
יפטר
מ"ל
##נצ
האברים
##וי"ש
##וענת
שתר
בהמ"ז
בטעמו
צווח
לשבעה
##משות
דדברים
לדעתם
ללשון
נשתעבד
בפניה
למינקט
ודעימיה
##רובי
שאלות
לכפרה
הלח
דגריס
ושהה
להולכה
היו"ד
בודק
לילד
לטו
השנייה
##שורי
יחטא
בר"מ
ניסת
לתוכן
ובטור
##וי"ו
וקב
שנתבטל
##יראים
נאכלין
פדא
דכפי
לב"ח
הח"מ
דבספק
וכדתנן
במעו
דרגא
דמס'
ויבואו
בהמשך
ניתק
לרמז
##ניסן
להעתיק
המשו
דנ"ד
##רקעות
##וסקין
כשנו
##שמיות
והאב
בטבל
אנוש
##נקנים
.+.
ובאת
קכ"ו
נפרד
רמה
בעז"ה
כסברא
פלשתים
תפסו
נבא
ללמדך
##עלתו
החבי
שחלה
דאגב
משורת
הלשונות
ואוקימנא
כמשמעו
מוטלת
ההל
דקדושה
דל"ת
שפה
שמרו
הממונה
דמתוך
ונפק
מרע"ה
הוחזקה
וזרק
ידחה
בקשת
מבע"י
בספיקא
הידור
דמכח
שלושים
בקובץ
מורין
##שייר
והראה
##משל
פייס
להכין
משול
ואחרונים
כמלוה
##נץ
והתנן
חידושי
לשפוך
קיבלו
ומהו
יקבלו
בר"י
בלבי
עוני
שיפול
##יתהו
נושאין
למוה
באורייתא
כדיל
והעידו
זביחה
דאתמר
ונוטלין
ועדי
נתקן
חתנו
נתחדש
נייר
הפסולים
אכלתי
וכשבא
מפשט
##כותל
יב"ח
דזמן
ויוסף
יכיל
לבדק
ושלמים
##יתירא
##פסקו
מעון
החזרה
סרו
השבעה
##נעול
דורו
ש"ה
שבינו
מחמץ
##פקח
והמלוה
מכריע
##וליד
לעול
##יניכם
דראובן
מעם
ונתי
כמוה
הככר
ידות
ימינו
ומנה
אלי'
יגרע
דמשנה
הענבים
מתכוון
ביאוש
טעמ'
דשלב"ל
כאמר
לנתבע
גוזל
מטומאה
##יקתו
ומקני
שאעפ"י
הנלע"ד
וחלה
החמישי
##פליא
בדברינו
התרת
היושב
וצריכים
##דוי
משדה
/,
תתי
בשביעי
שהוקשה
שלחנו
הלמד
שגגה
קכ"ה
בעריות
##כונות
##יתיך
יקו
מצויות
במדר
כב"ה
וקדושה
שהלוקח
הכריח
בשבתות
##פרשו
הפסידה
שנאמרו
והש"ע
דנאמר
כיבוש
הדג
חורבן
עט
וכונתו
בקרבו
נשאו
##גגת
באחרים
##ישות
לפרשו
הפתחים
דאג
מהלכת
בשתיקה
התחלה
בתשלומין
שנויה
מכרת
##יונות
##וריות
שפירושו
שרגיל
והיוצא
כהרשב"א
עיבוד
ונפלו
ממנהג
פיך
לעינים
מקויים
שגג
טוהר
וחליצה
לבעליו
שאשתו
הרוג
כבת
סובל
דיו"ט
סימון
בגופה
רציתי
ממרא
דכשם
דסמך
פירא
ש"י
מיחזי
טועם
כפועל
##שטיין
דשמעתא
להפסד
ולמ"ש
לתיאבון
והרג
שזכרנו
?!.
ואוקי
באבות
מכבד
וחטאת
המוסר
נשמות
המגן
דיוק
##בעיר
פרוץ
ומרור
אגרת
##גיות
ההוראה
לסעודה
כפירת
שהקנה
דמיין
המלאכות
בשרי
דפל
דצד
הציץ
שביה
וקצר
##נסוהו
ההסכמה
מקדים
##דלו
##זדור
בדקדוק
כרבינו
דתה
סני
מדרכי
הזקנים
##יהון
הנודע
בזריקה
וטעה
יורנו
שחייבים
אגר
חישב
דמז
לזכור
עמידה
כתיבא
המנחות
דסליק
למעיין
רבותיו
##ירותא
רובם
קמיפלגי
וברו
נצרך
חייבה
וצל
מכרעת
לתועלת
##מכין
##קיימו
לשוא
לכשי
##מש"ל
נקרע
ילדים
סתמו
זימון
זכרונם
דהבא
שחידש
ששנה
##זכרת
דסמכינן
בפורים
##שימה
יעמדו
מהרמב"ם
ובידו
להאמינו
אלישע
לאלהים
שהעד
הרד
ידן
שקיים
שמחויב
מרחץ
דמסכת
##חילה
יביאו
ותן
להלחם
שהבעלים
האמה
ניהליה
עיינתי
תמידין
בשטמ"ק
החזו"א
מהרי"ו
ואותה
ורשב"ג
והעיד
האומנין
הנוטל
יון
שביום
הבטיח
והתירו
##טורה
ותמצא
דממה
יינו
מוהרי
הדליקה
היסח
נדב
ומאה
והריב"ש
גורל
מכירים
כיח
מצפה
##ריה"ג
קכ"ד
כאי
##בורא
מקיל
שהדברים
##מיתו
ואיל
מצית
שאומרת
סידור
יאבד
מקובל
בחדושיו
##יכוין
נהרגין
מתפשט
##כתיה
##כ"ט
ברמב"ן
ממונה
בכהנים
החולי
הצואר
מהש"ס
לעונת
מעקה
לב"נ
ניזק
להפוסקים
##ודשא
המערכה
חוששים
מכסה
התעור
ק"פ
ונגד
קשירה
ותהי
##ע'
בריאת
מנדין
לצלי
בולד
##רינו
מאותם
נהיה
שרבו
דל"ד
##ירושת
איתחזק
בענינים
דבנדון
נדפס
סק"ו
עזים
ובספרי
ונדבות
##פליג
וממנו
השמר
תשחית
מעצמה
מגז
##ולדים
##ענוג
א"מ
צררי
מעיז
תובעת
ותיפוק
למכר
עשרון
מתיישב
החדשים
מלבו
##מצית
והסמ"ג
אפים
אליב
דשלו
חריץ
מחוי
הסמ"ק
הכוסות
ומתר
נטלה
מניעת
המשקין
##פילא
לשוכר
מניחים
החתיכות
יגדל
קברו
תוש
במכה
הנסים
דאח"כ
עשאן
תקיעת
פיסול
נורי
אמית
יושר
דיבורא
הסתרים
ואצ"ל
שחכמים
רברבי
מהנך
ולפום
שנוהג
מבדיל
##מדי
סתומים
הפילה
לכלב
##חטין
קבעה
##פרקת
ליבון
לגוים
##וער
דחשוב
שתראה
ויקחו
##מוטי
דאיק
לכתובה
כיי
##ב"א
פי"ג
שרוצים
כניסה
להרג
##טלטלים
סגולה
משש
וחזק
שלוקח
בעולמו
מאיל
במל"מ
ופרקינן
זרות
##ילוף
הגורל
ושק
חלין
נוגעים
דהגמ'
שופך
שרף
##שאיר
##שיגו
שעמדו
לאבי
נידוי
שנטמאו
בתשעה
גלה
שהמו
ולישנא
##ורי'
לנכון
##יי'
##יו'
בושה
שוחד
סלק
שהקדים
מחמתו
מיס
מפניו
דחגיגה
שיתקיים
נט"י
שחתמו
תקיעות
מינך
זיין
שלזה
דרשי
נתגלה
לאומר
יאסר
דבאומר
שהעיקר
סתירת
להרהר
##מעיט
אביא
מכחישו
ומצי
וסיי
הטיל
ומושב
תנהו
##גדר
מהיכי
דומים
הזוג
וחיוב
מרת
והשליח
בעילתו
התינוקות
##לוצה
בהנאת
בממונו
##והמא
הקונטרס
המשיב
שבנה
להדי'
לשלוחו
##גיעת
בתו'
אלקינו
בארון
תלי'
קיימינן
כדברינו
ריא
##וי'
השירה
##דיח
למפרך
##תהפך
בראשי
הקרבת
##נ"ע
אגוד
ועת
נדתה
בכורי
ובקו
וחשוב
דשחיטה
השאלות
אכלי
שנפסל
מוקים
בהדי'
רחום
ועני
בצער
מיתיבי
##פח"ח
##ירוב
דחוששין
##חותה
היקש
סולם
הניזקין
שהמע
בעמוד
הקצה"ח
##יטרא
מעים
להתברר
##נפים
שלאחריו
ליפול
צדקת
קורט
רזא
המכוון
וביד
שכפי
##כולת
חיובי
נתיישב
ר"ב
##כלך
ומשקין
##וגמא
דנכרי
ופ'
עזרה
העצמות
הגהת
##מיטת
אימר
המאורסה
ביתי
##ינונית
ומבאר
אילא
ויעויין
במזרח
##סורא
דבחד
ומביאו
בס"פ
שנתר
בעיסה
מריש
אתחזק
תמהני
קובעת
##נני
שיועיל
חטאתו
דקדושת
עידית
תבן
לחל
ק"ס
שוי
אהב
המודעא
כמדובר
ליין
##גרו
דהאידנא
מרמז
הנאמנות
ששמעתי
לבנין
יבמין
וטבל
##צטרפין
פקוח
כלות
דנקרא
ערער
האז
בדקו
דלזה
ילמדנו
הכותי
קנויה
דטעמו
המון
ולבטל
שהתבאר
במקל
רא"ש
ובנדון
לחברתה
שכרן
נבוכדנצר
בחולה
ולולב
רבותי
בגלוי
מכפרת
המום
הטבל
בסוגי'
רץ
דבטלה
בתך
##יובי
##ושרין
הוינא
נתנם
##בוט
פנימי
מושך
##משני
עמל
והכר
בחרב
דבכלל
ומדרבנן
וחיישינן
ובהש
יישוב
לשבע
בזנות
ופריק
##וא'
מוחלט
בהוצאה
והשיבו
דוסא
נסר
בבגדים
ללמדו
הגרעק"א
שכולו
העמוד
דענין
שניכר
כשהא
אתנו
חייבו
וכזה
שמונים
יסת
נולדו
שתרצה
שדומה
תשים
##רושין
שכבת
וברכות
בהדייהו
לברוח
שהוד
##יקול
זמני
ומצה
בהיותם
שתוכל
תקי
בשערי
מחיה
##כונת
דפתח
הבע"ח
##ו"ד
שנדרה
##פותה
שבתוכה
בהיכא
פסוקה
דקונה
עליונים
ותרומה
שיגרש
הוציאה
##מודי
דל"א
##צול
מיתסר
##כוחי
דליק
ובעלי
##קתו
בקה
שלוש
לנע
ופשיט
השפחה
מילתיה
כשיב
ויציב
ושמרתם
בשבע
לדרום
לרבויי
תלמידיו
וקדשים
באידך
לנט
באחרונים
משמת
ישובו
דפשיט
זרים
השתח
העטרה
מדתו
מזמנין
נאות
ומעולם
קנסות
בבישול
שהתפלל
שלל
ילבש
פתוחות
בשלה
מלאת
ור"ן
לזכרון
מינקת
דפרישית
להכשירו
קופ
דהיאך
גפנים
##מימות
שבנו
##צל"ג
ולכאו'
למ"ל
העברה
זוב
יגמור
בחיבורי
בכבודו
##כתן
מ"ם
##פוהו
בחלום
וק'
לפלוגי
##מצה
דשכירות
ובפ"ק
תורמין
##כ"ב
למבוי
הסמ
התשמיש
ראב"י
ויפ
ותומים
נשלם
פות
אוזן
שמזכיר
מיתוק
וניכר
עטרה
הדמיון
דמיקרי
כעונה
בלחי
ויצאה
בפרש"י
בעידי
מתפיס
וע"ל
גז"ש
עילו
הגבוה
בראובן
אבדו
דמכשיר
דפשוט
ביארתי
הרוטב
שפרש"י
##זיון
באמונה
##בוני
לנצח
##ימניה
##ידושו
שהרגיש
כסו
והותרה
ראב"ד
דהאומר
ימלא
הכבש
בחבר
בכליו
##כנוס
טבריא
לאיבוד
מהפ
האשם
המשנ"ב
##לח"מ
ובגין
שוש
להשק
ויראו
השמירה
חלוקין
דאכילת
תפול
נגזר
הרועים
לחו"ל
השחתה
מרויח
קכ"ב
כפשט
##זלה
##יכנו
":
##נויות
בתרו
ודפח"ח
לר"נ
דנשת
וכשמ
לבועל
בינתיים
##ותבים
בחכמת
ויתבאר
##קצאי
לעבדו
מלעשות
ול"ה
לתתא
##כנזים
מקלט
##כסין
ומשנה
בתומים
איכה
ממעל
ארג
בקשו
##כבין
העומדת
##ילקו
שביטל
בעולת
קראה
##עילא
אדברי
מוכרחת
נשתנו
להשהות
אהובי
##ה"ב
למנקט
בדמיו
דכדי
כשעושה
דנדר
##מורין
שמכיון
העביר
עדיפי
קל"ד
לאסוקי
וקברתיו
חמס
להחיות
כנפות
דראש
כעבד
רגילה
השירים
שהכוונה
נחוש
##בי'
והוד
ולהר
הכונס
##נט'
סיון
בכחו
דבפ'
בתפלתו
אנינות
יתומה
##זרא
##ברג
הטובים
אוקימנא
##יבמות
הבנה
דמיגו
שגבה
להקדישו
בנפ
הצלת
דבכור
מדותיו
אדמו"ר
ומוסיף
והשו"ע
##ממו
רמ"ה
פירשה
שומעים
המגיה
עמון
זוכין
וחוץ
תולעים
יסור
##ניני
למיזל
יארע
משתעבדי
דהספק
##סרי
באפשר
דטו
עשבים
מדור
הקושיות
מכס
ופשתים
##מכם
##כוהו
המ"ב
##תיח
הנברא
וימצא
קניין
דטפי
ש"ק
ושמעינן
וקול
מחייבים
טורף
שיצ
##מרין
הסכמה
להפטר
דבמע
מבוארת
תפדה
מעלייתא
חמוד
לוחות
לעצם
לאהדורי
יכפר
ליכי
מהריק
מרביעית
והזכיר
אחשורוש
התורף
הדגים
ונחלקו
לשטר
להתגייר
תרצ
דבהדיא
רגילות
שאנחנו
גחלת
ה"פ
##מאמר
וזור
וטריא
המלוכה
מקושר
מסוטה
בדעתי
תהו
מאריך
רוחו
במערב
##סתה
איגלאי
חשך
הפתילה
וולד
החדר
##מותי
נפתלי
תחמוד
חסדו
ובמשנה
וגדולי
מקומן
קביל
##טעין
משתעי
אחור
השיטות
מדנקט
לגזול
##גיירו
קברות
מחמירים
##פתור
דחשבינן
אהך
בהיפוך
ליוסף
המצרן
דהמע
היס
טופס
כתות
נעשין
עניי
לאחוריו
##חזוקי
אמך
להמלוה
יטה
##סאי
שמצאתי
בדיוק
##זדמן
קרינא
וכמדומה
קן
האט
ובהגהות
שוורים
ששחטו
למראה
##גוב
לזנות
ח"ס
פב
##מריה
ממונם
הנשרפין
מחוס
כגבוי
שהרשב"א
וגרסינן
וליטול
##שב"י
יחפור
מכרן
סומכים
ובפס
המעיד
דגל
לטעמי'
היע
למזיד
נגח
דשכיחי
שאשה
למקבל
לקב
בט'
כחה
קין
##זם
מהטעם
מלחמת
בכתבי
הספרדים
##יכנס
במוך
##כסת
לחמץ
הק"ו
וכדו'
המסייע
מעיני
שהתנו
והבאת
ונאסר
מתקיימת
הנשארים
הדף
שסופו
קכ"ג
##יונו
מחמרינן
נקבר
הפקיד
קרובו
אלחנן
ותס
אגרא
בהסכמת
פורש
צולין
תשבע
ואקשינן
אגודה
דרום
##ש"ע
והירושלמי
שכונת
החוטא
בגבולין
##צף
מאוס
להלך
ישנם
יעוי"ש
ועליה
להאשה
תטמא
##ינויא
אלימתא
##פרות
להאיר
המחט
שפסול
המובהק
יתבע
##ליפו
ואמ
והמד
במפרש
והסכימו
ודף
מוציאים
לאחוז
נון
ולקחה
##ביריו
החבי"ב
ישע
מופלא
ולדידן
מפרשינן
ונעשו
חירות
סחיטה
והטוב
אחיה
לפרק
דמעילה
אסירי
הלוא
##ממות
והוב
לומדים
ששאלו
כנגדה
ומיעוט
בהכ"נ
ביארו
מיחו
וטומאה
שכאן
מגונה
תמיהת
חורש
##טרים
דהכוונה
הפרס
ישר'
כטעם
משביע
למשוך
לרעה
מטהרין
##נעים
ואותן
ליטלו
ונדחה
עפמ"ש
ניסוך
להתאבל
מאש
מאלה
ושוק
הירק
##וגרת
הנשמות
##שתיה
כדבריהם
ערכאות
אחשב
גירי
##יתני
##בער
שסוברים
לכולן
דקושית
ואח"ז
לצבור
מחוייבים
חותך
ממלאכה
דמחוסר
ספיח
נתפשט
דפחות
ותהא
לכותבו
והכונה
אדה
שושן
אבותיהם
דחטאת
שהשל
הזרעים
להזימה
וישוב
ספיקי
ק"מ
בשינה
בסברת
הזוכה
כללו
כאיש
מסורת
הלאוין
ציית
המהרש"ל
מנוקב
ישתמש
שגד
למתניתין
מקדם
נפקי
כמותם
להמת
וקט
וימים
וישת
קדשנו
הברזל
ובפר
הנמוק"י
##משכן
##לחין
הקור
לגדור
##תחייבות
גגו
הזמנים
דמפני
שיושב
פאת
ומסקינן
##לב"מ
דכה
מחזקה
כשיהיה
תשמישי
##פ"ל
האזורי
##תוספ'
העשויה
##לבש
דמקודשת
ואפי"ה
##נקה
להטור
ודוד
דאוריי'
מכניסין
לרק
שתלה
ומלשון
ת"ה
לפור
בנגעים
כמנין
קאמ'
שבירה
העשיר
מיפסל
לנזיר
##יכוך
בשעריך
הירוש'
וכולי
##חשש
##פרם
##ציאו
מרצונו
דמלשון
בברוך
נמנה
##ילתן
##והב
הרגישה
שטעמו
הכיס
זמנים
כופה
והחו
ועשא
דקות
נשות
##שביע
לרשב"א
שתלוי
לנכסיו
ומראה
לאוקמה
כפורים
##ובדים
ברצ
שמועיל
דלר"ש
משפחתו
##חטאת
דל"ח
נשארה
חלוקת
גרמי
השותפים
בירושלם
##ניתו
המקל
בשול
כתוס'
דנאמנת
ייע
ונשמע
ורחוק
יבחר
מודי
עש"ב
חיין
יקדים
הרמה
ממדת
כשיר
שנשחטו
תורם
כדיבור
נחמני
המכ
המשא
##באים
משתח
ומכש"כ
בשק
סק"ז
הרפואה
בקיומו
מגלחין
הצער
##צרי
סתר
רשותא
סיבת
השערה
מיגא
ורבינא
וביש
הגמור
מועל
יחלוק
##מל"מ
סתימה
שס"ל
תרי"ג
שיצאה
מהפוסקים
היציאה
ועכצ"ל
הובאה
שמבטל
וחבירו
נדחית
בפי"א
בשתים
ומקדש
##לת"ה
##ריסות
דולק
שאבאר
וגדר
שחב
##ניש
##פרין
והביאה
##יבמה
אומרי'
הגשמי
כד"א
ומלמד
העופות
בספרא
יפת
ואסר
השערות
אליכם
דקיל
הפנימית
כעד
קרה
האפר
בגרושה
מזומן
שנפטר
להניחם
דרים
הקצה
דשטרא
##גונה
יחדו
גמורין
ובחידושי
שביר
ועביד
המשקה
הרש"ש
אמש
לגג
הפיל
##סיפין
שיער
כתר"ה
פעלים
למדינה
דנקטינן
איגר
דב"ד
הנפטר
בדורו
משבועת
ועין
להשמיע
רכה
##עק
בתמיד
##שלה
מאנשי
קרוביו
גנבה
שנולדו
מוכת
דחמיר
הירח
דגופא
הרגישו
ממקו
ובסיפא
דזכות
צונ
המתירים
דזכי
גרועה
מכולם
קופה
במשה
מצב
ולעו
המוע
כחי
דאלת"ה
מחמי
עיכוב
##ייסו
והכתיב
דממון
דנד
##פתר
סס"י
מקדשים
ודקדק
דאוריית'
זלמן
הדרישה
בל'
די"א
הושעיא
תכ"ד
דהחיוב
וכמש"נ
##יאון
##יחא
ונר
בצלי
שע"ג
דממ"נ
והמב
וכמו"כ
קמיירי
עובדיה
אנת
שהבן
וגוי
ברירא
דמותרת
לרווחא
חוקי
פיט
מוליך
##בט
לאמת
נחלות
דעתי'
שהדם
דאימא
נפשי'
##ד"ח
לוח
בטרם
במציאה
בגדולה
אשר"י
נטה
נחום
##ולעים
שניקב
##מיתך
הכריחו
משתמר
##טוען
##בודות
ונשאל
פרסאות
מברכת
דבסמוך
##יימים
להתנהג
לדרשא
צוע
תשו
למתים
הבחור
בחבל
הבאנו
לאמה
עקיבה
מסוכן
במלאכתו
רובן
אלינו
יעיד
פרוסה
מדרשות
לחשבון
ארוכים
##ברם
עצום
גופן
דאיתמר
הנוסח
המחיצות
שכולן
מוחק
גומות
בקדוש
##ותיות
דלילה
שעו
שעורין
כשמע
וקנין
כחצי
דינן
##מצו
האיבעיא
ובפירוש
גדלו
מעכבות
ללקות
מקרקע
שהזכרנו
נמר
##מנע
לכפור
בארתי
למתנה
פדה
דמחזי
##מיס
לרצונו
דתענית
נחושת
שפרעו
בנט
במשקל
נכתבו
ממדינת
לתרי
עוקבא
ובביאור
דמחל
הכנע
אשתכח
אא"ז
שהייתי
חזה
##דוהו
המחו
במז
ולהתיר
##סטים
בהרי
בעמידה
בחומר
שקבעו
דקדקו
נכסיה
בפה"א
דמנהג
עמודי
לעובר
כמוש"כ
##ונשין
לפרסם
כר"נ
קמו
האיסורין
ונב
גליון
אקני
##חיה
שהראה
אפיה
שעוה
הסל
בראשונים
בצע
מקבלי
דסו"ס
בגליל
אמד
מצור
החרש
החיצונים
צנו
##שוני
לגופיה
שנוכל
ברגע
ליהודה
ליתנם
וטריפה
##הי
##יקשא
שביעה
לחובה
שהיום
הפסקה
לחזר
נקבות
נשאה
ניזונית
דה"א
סותם
וכולהו
העגלה
נזו
תתח
הכאה
שחבירו
אנוסים
נטמאת
דלמסקנא
חברים
ירב
להתם
##מאס
נתנאל
אלשיך
ליהרג
דלרבא
##כסות
הטביעה
התקיעה
כהנת
מודעה
התקבלתי
##כיבה
באמו
מעה
לכד
עונין
למידע
לצוות
##דיה
ובחד
##ותרו
והזה
ההודאה
דסד"א
דשיטת
להוליכו
וטהור
י"ה
ריחא
בהפקר
התכלית
מדרבי
עולמות
שנרא
שמחזיק
שעט
גורן
שאולי
בבגדו
הפסולת
ומעשים
מחולקים
שבפ
אתי'
##וריו
למוכרה
העון
אבותם
המנוח
רבין
כללות
פז
##יורי
דו"ח
תוכות
בבהכ"נ
ישרף
צום
##ירוצא
בלילי
שירים
בצורה
שפתח
לפרעה
לאותם
שאובים
הקפידה
##דורא
ובמסכת
הגזבר
##שוף
החיל
כאוכל
##ניחוש
פסקא
שבאים
##יעורין
לבעה"ב
ודב
מלישנא
רי"א
ומזוזות
ול"מ
##ודאות
שנשארו
וצדקה
כיש
תרגם
כממון
בשמחת
להשבע
דאק
##מו"י
המתח
כיעור
##שכת
להוי
לפנותו
הוברר
ושליש
הא"ר
עשיה
בוש
##רוי
לכלול
הדיון
בנפל
מטיל
משפחות
כונתם
ח"ל
בתי'
בת"ח
מניחו
ומפ
השיעבוד
המשכה
יתקן
והר"ש
החליט
ובשני
קרנות
שדוחה
מוא
דבו
שמדבר
הספירה
דאעפ"י
בנקיטת
ממאנת
לסחורה
ירשו
לחלב
##עדו
##כהו
##ונג
והתנה
מעיזה
שבלא
אלמלא
עירוי
הקהלות
ינתן
ומוציאין
מעשרין
בעדותו
דרומית
בהרת
בהכחשה
ליפטר
שקבלה
קולי
##פאה
ולחומרא
ובאין
דודי
##לוניקי
ענוה
השיר
מנודה
במזונותיה
וברוך
וכסף
כשכבר
כר"ג
ושמחת
דיניהם
שקדש
האצבע
אנוסה
כרבים
דבש"ס
ונאבד
דהיתה
אמרם
צוו
##שבי
הגרים
בשלישי
פדיו
ומברכין
מקומה
קבועים
שפתיו
כלתה
ההבדל
הזן
דנוטל
ידור
כשתי
המוקף
לקדירה
דקושטא
הילוך
##כז
או"ה
לכתב
לימי
לרשע
יוחאי
אוקמוה
לאכלן
נולדה
מפא
לעשייתן
##שעה
מקפידין
שישמע
הטוען
בגילוי
דסמיך
דלדידהו
להמציא
גרג
בהודאה
שנמשך
מוכנים
כרגלי
דאחרים
ליטע
##יטהר
והאיש
בפשטות
והמעיין
שנהג
באברהם
לבדם
ושוה
ומ"ט
דדמאי
ויתפלל
לרופא
שכנים
לדמי
לקיי
##ופל
מחוברין
שבתא
דמחמיר
מלקין
כנוס
##מכים
מבוש
וקר
דמהימן
ברזא
ורמ"א
.,
דשומר
ולחלק
גס
בתא
##חותא
ולפירוש
ובעבור
וא"ר
והחזיר
בהגיע
##רש"ם
הלום
סניף
והולד
הבונה
גוש
שבישראל
דמכאן
סימנא
לנידון
##כ"ש
ממנ"פ
הראיות
כגריס
מכוער
##קשת
ונטמא
שבקינן
בסימ
וצדיק
והודאה
העמד
ובהלכות
##גביהו
ומזיק
בהרא"ש
י"מ
ומלת
בפשוט
ברמז
##קבצו
מוכרת
גן
דלוה
##ש"ק
דמעל
הגע
קל"ה
הבדיל
אפי"ה
קנוניא
ליכתב
וקראו
##תמו
##רה"י
מכתוב
##ועיל
דנדון
טרף
נרמז
קחשיב
##יתוף
איפשטא
##כירין
נפרעין
ובתוספות
הערים
בבין
כהה
הבאין
בינתים
כנים
ומ"ד
במתני
מששים
##יעורא
בפתיחה
כדרב
הטפל
חושן
##כסיה
דמנא
ושח
מיפס
עשן
דבההיא
קנ"ג
כריב
שורת
קע"ו
המעלות
בחנק
נעו
שמ"מ
##גדור
חמשת
##ילכתא
מהימני
גרמה
הנמוקי
יגאל
##יהא
הנכרים
דתשביתו
אורז
מגמרא
מנהגא
מהיות
הצדק
לאבא
##תימות
פי"ד
ולהס
ימחה
שהשמיט
קשורה
כזב
בגוים
##גהת
מועטין
ונותנת
שמסרו
קל"ב
מורשה
ובור
##פיצה
ולקחו
מושבות
שהקשיתי
תורא
בפיהם
הנהנין
לאלמנה
##ינשטיין
דברתי
נזדמן
בנ"ט
והר"מ
פוטרין
נמו
קיחה
הצרות
מחילת
דגובה
תתמה
מאמרם
שרגילין
שצד
##נר
מקני
##בתם
המהרי"ק
ובגוף
##קפה
והעו
במזבח
ממס
ותרו
קריבה
##פקפק
תלד
ירוק
תורתך
שבמנין
מוכרחין
##גנה
בערי
להגעיל
עבידי
וטרפה
השקה
שיתברר
אכי
ומרו
ליצחק
ואזלינן
במשקין
קרובי
שילוח
וכלו
בביאת
וקדושין
##ירתה
רקיע
שיחיה
נחתך
בסעודת
מוכחת
עבידא
ליתי
עושר
ומשו
העברת
נק'
חרטה
כר"ח
והרמ"ה
בגויה
##צרן
הוכחתי
שהמח
מהדו
באפר
הגזרה
שכלי
בתער
ושקיל
הזיקו
מצרף
לעמו
דחסר
רגליה
שותק
##צב"א
מיימוניות
##ליות
##בתים
##ירכא
התירא
נתייאשו
מפירוש
תיבעי
השרים
רשב"ל
##יתוי
##פכה
במתא
אבותי
דגדול
נבנה
לקוברו
דשבות
טעמייהו
מגרשה
##שנה
##יניהן
וסבור
ושלו
גויל
בכרמלית
ושעיר
כשכתב
שריר
לאחריה
רדב"ז
שכונתו
שמשלם
הדבש
דשמעת
שבפנים
איצטרי
בחבורה
סלה
תנחומא
נחשת
מטמאים
יחידאה
שהקשינו
##חייה
לקבלת
##שועבדים
לשמ
בטח
ותוספת
אח'
המוס
דהוצרך
כבה
תחום
סותרין
החשמל
שנפסק
דמדא
לדופן
חלקת
הנקראים
דאמת
משור
בעילה
סרק
##גנין
מעובדא
שנאסרה
מגלגלין
יחוש
במחשבתו
קורקוס
לכה"ג
##רור
הכ"נ
חובתן
ונחשב
תמר
וב"ד
לבבל
בתיבה
הצלה
במעשרות
רפ"ב
נרגש
שקיעת
תרל
דטומאת
צורי
##כאה
##גוז
במשמעות
ביישוב
##פצו
היש"ש
הטהורה
חפצי
בכותב
כנישתא
משבח
מיכל
ומהא
ללות
משוח
קל"ג
שהספק
גידול
ובריש
דאוקי
##פליט
##בורתו
תנופה
יוהכ"פ
ל"פ
שירי
##עוטות
##בררו
שאמ'
##קבץ
בחוט
נצט
שרבים
מערכת
דסימן
ויכתוב
מיטב
לנוח
##נוש
הקפה
למיסר
צווי
תלמידים
תמימים
פנה
לנקב
מיחשב
תגזול
##גרי
ואביה
דדא
שטות
דהנהו
מתנאי
מעכשו
כנהוג
והיכן
והמוכר
מתרת
מחויבים
בשניה
בפשוטו
מחטאת
המספר
ולפרש
להסתלק
וכ"ד
השתי
לרשב"ג
מטרי
והר"י
##מייתא
וקטנים
##לוגתייהו
אונק
##פייה
אזדא
תה"ד
מדמ
##גייא
ומהר"י
שהבית
עמדתי
כשבאו
משגיחין
##וקין
ולקבל
מאמו
שואלים
לאצטרופי
זוחלין
בלימוד
מעכבא
לזוז
ובכ"ז
שגדל
##טית
אל"ף
בנב
נשנית
##מאו
בדיק
דתיק
יוסה
אורו
לשלש
מחצר
מטפח
##נפת
האגודה
שתנשא
דורון
וחזינן
עטרת
##חומין
גזור
משעבד
סק"ח
להיכן
ולקרות
סוגית
דהלכות
פתחי
דהאיך
הטבח
קונטר
ב"פ
ומט
שבחא
שמשו
נתקנה
עובדים
תקופת
##גרסינן
##כ"ע
בדמאי
זכי'
המאורע
דכוותה
שנקראת
שיי
זהיר
שמחות
דתקנו
קל"ט
חפצו
עמיד
מכך
אתון
חלץ
פתר
וקדשה
##מלו
התאוה
מערבא
##בתר
נתקדשו
שיתא
דעבודה
וחזקת
בנולד
מניקה
נחזור
רעי
##סמים
##לשו
הוית
נתמלא
נשכר
ובהכרח
ויראת
שנתערבה
נתיבות
וסתמא
מאשתו
ששואל
##ינחס
יולד
שמז
ווא
חבלה
המכס
דעם
##מראות
בלבם
ששאלת
הגרש
כנסה
המתא
##כייתא
לדונו
##או"ח
שיכוין
קנסינן
השלים
שגגת
נהנין
לצפון
והעמיד
נפסלה
באוכלין
ט"ב
ובנים
שבים
וערבה
בפמ"ג
בכולם
סיחון
##חוי
למילתא
הצואה
נצרכה
אברייתא
סרך
ולשם
##דיע
דמגו
שדנו
הוראות
יוק
עסיק
הקנים
יחוס
בחוזק
למוצאי
ורצו
##ומדנא
וליש
לתשלומין
להשתתף
ואוכלין
שקדמו
אורייתא
האוסרים
יהב
והאידנא
לייב
##ילוג
ובחי'
צאי
תיר
מ"ר
בשמירה
שנתכוין
דפסקו
שטעו
##רבים
מב"ד
הוכשרו
מחזיקים
נוב"י
ואק
הכירו
ובש"ס
התרנגולת
תזרע
החבל
##ערין
קנ"ה
##כבס
תשביתו
הסוחרים
קושייתם
טומאות
ומוקמינן
ואברהם
דכד
לתקנת
שהבטיח
בחיבור
ונכתב
ממלוה
ממזרת
חטאים
מקפידים
ליטרא
##חורות
וכופין
דמכר
דבמו
מו"מ
דסלקא
##נגול
האלף
נתעורר
דפירוש
דמתחלה
דורס
זיבורית
מיכא
שמשם
מכסף
המפלת
מיגש
##פוטרו
##יבורה
הפסולין
ע"ת
##יבורים
והמצוה
משתמרת
יכנסו
כא'
הפשרה
פלו'
השלמה
לבריות
##..
והקדש
לשואל
דמספק
דמסתפינא
שעטנז
יחלקו
לטהרה
חתומים
החידוש
נשברה
המערה
ילקה
שתיית
שבשלו
מעצמן
משערינן
דכרין
##צאתו
שמתחיל
##עירים
כמה"ר
תשכח
דלהר
לתקוני
דערב
הטריפה
השייך
דמבטל
##רעם
עשירית
וטהר
הקדמה
לציבור
במשקה
יגלה
פלט
ושהוא
פלוגתת
נלך
לקצור
##סרין
שזוכה
פגו
המהר
אבוהון
##דעין
##יכון
##קדקו
מאבד
שעשאה
בעליהן
נתקשה
ויחיד
##ואיה
בתקו
מבואות
עקרה
שמחוייב
לטבילה
שהכתוב
במפורש
דכסף
לאמרו
דמפרשי
העבירות
שריפת
ומאתים
מולד
צורות
רכב
הוכחת
לברור
##לומות
לכפול
בחדושי
כלול
במאתים
ונגע
ונמשך
כמק
גורמת
ישועות
חמודות
האבידה
נושאים
היקף
יצוה
דהמוכר
המכחיש
דלר"א
באחריותן
##ורתא
מחלב
שימש
חליצתה
להטריף
גרסי
עשויין
לדרכו
##נאמר
##נותה
הקליפות
מצותה
##דליקו
=,
נזהרים
בד"ת
בתרייתא
ולהשכיר
##ימו
שישמעו
בלעז
סולת
ולך
##לאין
דשמעינן
להוצאה
דפטר
ומקרי
ולקולא
המעט
מיו"ט
משתמע
גשם
מקיש
קשרים
יהוד'
שיטין
דכתובה
בזרוע
ומבקש
בילה
ואסרו
##גומו
האיסורים
יומים
אשכול
ועומדת
##דייה
בדבש
ותראה
אחרי'
שיחה
גע
##מלים
שהחזיר
ממשה
ושלשים
דשק
ששבת
##א"ף
במטבע
יהבי
מכורה
##פלי
דהלוקח
וליה
נהרות
אדבר
בטבעת
טבעו
בעצי
במומר
רשויות
דה"פ
ילמדו
רחמי
##ירים
להוריד
מוהר"ם
וחסר
##זוג
הישוב
פשטות
מאליהן
פט"ו
תמצי
שהזכירו
מפורשים
שנתרצה
ושו"ת
יחזיק
##טוס
תולדת
אחוה
ומית
מאכילה
##סתן
מנגד
הגהה
כפירה
הייתם
##ערים
במליחה
למידי
##יבוש
יכולתי
פסולו
יטעו
דבצ
העברי
קצץ
ומנו
בכנה"ג
##יריים
לזמנו
לטיב
ומכרה
##וייק
ושש
וגי
וגבה
וקטנה
דדבריו
אדידיה
להשגיח
##דריגה
הטובות
קציצה
דיכולה
ריא"ז
בלינה
בעומק
יסיר
כדקא
בקור
נגאל
חכמינו
הבריא
ואמור
תעבור
ויבואר
עמ'
בסחורה
לגי
שהעולם
בנתינה
שופט
חבריה
ככו
לגופו
ירח
בפסיק
וכדפרישית
נשתקע
ובוודאי
מו"ח
חני
דמטי
לעולא
ומואב
שכשם
בתורתו
החשוד
שעש
גרמו
לכאו'
והמנהג
עשירה
תובעו
ותשכח
##מחוי
דייקי
מסופקים
לנדבה
לאגרא
התלוי
במית
מעושה
מסטרא
הנאות
שסי
##עה"מ
פסולות
במאכל
נזירותו
האסורין
שהפקיד
שמתא
הכלבו
החזיקו
דאישת
לבכור
גרשון
וחלילה
קיבלה
ששייר
הצוואה
המנהיג
משקים
דקפיד
ולהניח
##חרי
מערער
הקערה
לקבלו
לדוכן
לבבכם
ומלוה
מתערב
כשיצא
כיסו
שגרם
וט"ז
שנמש
תרפ
לעניי
גימטריא
שפופרת
מהתוס'
השורש
הבנת
רכ"ח
היותם
בפה"ג
אוו
לחלה
בחלון
הסברות
בעניין
##ולתם
מתרצה
הפ"מ
בביאורו
שהחזיקו
רצופים
פסיקתא
ביחס
לביהכ"נ
אחזק
משחש
מתנ
הפרטים
העראה
##טרג
כמכר
נוגעין
ארא
וברח
זן
והותר
";
היתו
דהיתרא
##פסין
הון
##צבו
גדלות
ויוצאין
##יבון
השטן
העונה
בפ"ת
לנגד
כנגדן
קנינים
ועי"ש
##דרינן
שבמע
לחפור
פירקין
חנינה
לפרשה
שיירי
להכניסו
לוים
הארוס
בעונש
בעלות
קמ"ב
לקדושת
שכם
לחט
נכנסת
מרבותינו
זצל
קורות
דהמש
הלזה
האשכול
האולם
כלומ'
ולהרמב"ם
יצירה
עקרו
אמונת
והנח
שלכם
##תחילת
##רהם
הציר
##מירא
##נוניא
##עה"ת
##מזבח
דבדרבנן
בדידן
יישב
ונר'
כשהיתה
נדוני
שהנשים
כגופו
תלכו
וכסברת
##גמה
מבא
שחול
במותר
החמורה
דגרע
מהרי"א
##כיא
מטות
להטמין
מפיר
ר"ד
##פדת
בקצוה"ח
ויפטר
הבאות
שלבו
ולחם
שעוסק
רבש"ע
דמש"כ
לשבות
החולק
הכול
מא"י
מרכבה
הבעלי
ודבריהם
נבדל
מכבוד
שיקיים
הוושט
שדינן
אסירא
אינני
והיום
הדינין
המשפטים
לוקחים
ותוספות
ועי"ל
##חוז
כהרי"ף
קל"א
במלך
לחודה
ההורג
עישור
ול"ק
מלקוחות
זריזין
חקירה
דורא
פ"ר
לבילה
מכ"ת
##צרף
בנוס
כמתנה
בילקוט
שפשע
דהברייתא
דקיימי
כשיגיע
דפשט
ט"ל
##ות'
הסוס
מחייבת
רצועה
סילק
##אה"ע
ונשארו
בבעלי
לקרוב
נפשייהו
ספירה
בשרה
##גדף
המצרי
דראשון
בשבועתו
##גלא
בקידושי
שנדחק
גמלים
##ממא
ותקנו
מותיב
הריבית
דקטנה
וסדר
נשפך
נטמאה
סמ"ק
סמוכות
דורשין
והבו
תיו
##מזר
שאכלה
ועונה
מסוכנת
ולקחת
ופסח
ואה"נ
##טירין
בהון
##בליע
מתנהג
ורדים
תצטרך
ואתח
שהפרי
ואיבעית
##שרין
דמדין
המסירה
בתשוב'
רובי
להדר
##חתת
דפת
ששכרו
סיג
מחנות
##טהרת
בשורה
לחר
לשים
##רימין
הד"מ
ורבותינו
גזול
ונדחק
שנתק
חיטים
וכולה
##עיסה
הארכובה
בשיר
עדה
דרכיו
##ופם
יצתה
לפעול
בשולי
שב"ד
מנש
לניזק
לה"ר
רום
נוטלים
המתחייב
אפטרופוס
תות
פוטרו
סוס"י
##נדר
הטמנה
כשומר
##ככין
##רו'
הדופן
וקידש
איתן
##ניסתו
וכונת
שווין
שגירש
חולצין
אילין
קשו
לרבינא
תאנה
ברחוק
חלת
שגדול
בישל
בברית
בעופות
פסחו
דחזו
וסמ"ג
להחמיץ
צע"ג
שרים
עלין
החשוב
מיישב
הותירו
אברי
##רא"י
##וה"ר
שמנ
לכתבו
##טבח
מידת
זי"ע
##יבתו
וביר
##צטרפו
שבראש
מבוררת
זיעה
מדינות
בב"ה
ותפס
נהרא
ולוקה
מהגאון
שהראשון
ומלך
דלס
ידיע
התוי"ט
שעוד
הצבי
הפקעת
לקדשו
##פותו
שמי'
היצה"ר
הט"ו
מרוטנ
הבי"ד
דתב
ברכיה
הזריקה
דומין
רי"ף
והייתי
בשילהי
לחתן
להורי
דתנו
המאורות
ומחייב
משמשת
##ויו
דביה
מופת
שחזרו
דתמיד
הרמ"ך
לפ"מ
למנו
החזרת
##זרחי
##פטים
שנאנסה
ליו"ט
לבישה
מזרחית
בשארי
זוז"ג
הגדיש
אמ"ש
אבי'
##פשרו
##וררין
מלחמות
למילתיה
לקום
זמנא
להירושלמי
שהישראל
לישיבה
החושן
בישא
יוציאו
נמוך
דהשליח
ונחתם
בירר
נוסחא
##גמא
דמידי
דבתרא
נעי
במתן
בדיניהם
הח'
שישבו
בחותם
פר'
רגמ"ה
להטיף
פרש
ול"ל
משתבע
ידא
שענין
מערכה
##שותפין
שלוחין
קרנא
מפעפע
ומין
מוחין
בגן
וטהרה
יזכיר
סרי
מחטא
וקשר
שהגיעו
מפסקת
##ש"ה
מכא
וצרי
תשאר
שנט
בחינה
כהתוס'
וסמיך
צפונית
דכהנים
מערבי
מסא
קטלא
והק'
וליישב
להשיבו
טמון
שדייק
בשרא
לפקדון
יוצאות
באומד
שהוכחתי
לול
##טעים
שאלתי
ב"ת
ליי
שהיין
מדקא
לשריפה
נפקד
קט"ז
אנפי
ההדלקה
המחק
ומדה
בימיו
והאם
בטובת
הרחיק
יטעה
מחייבינן
שתבא
ומגו
דס"ס
##חלות
##יוון
ואינך
##ירתת
אגדה
דשוה
השקול
עושי
תשלח
##ול'
שהכהן
##פסלה
לתפור
ניקבה
מוסרין
בהוראה
לחדר
לצדדין
שמלאכתו
ימשך
כ"פ
שאותה
ורשות
נסתפקו
##ניאל
באזהרה
יונק
בגמר'
ובתה
כשרוצה
המחיה
אריא
גרושין
מזאת
##ע"ק
שמזה
##חתרת
ובשטר
מדאוריתא
יצדק
עתים
תגר
בהרב
הנב
דחב
לתשובה
##פשטו
יסכימו
שנשתמש
באמירת
הנכונה
מבערב
אשירה
אחיזה
##לג
מהנה
ונזיר
תבעה
##צ"ב
##ליפי
לימין
חנויות
שנקט
הנטילה
ברכי
נפילת
בצנעא
שותפו
בהגעלה
בפתחי
אשרה
והספק
אכי"ר
שהחמיר
החנוני
לשלח
ושיטת
##כולם
קמב
להמש
##עלתי
הכתם
##חורים
כשער
ריב"ש
לשליש
המיגו
##נוך
נו"ן
ודעמיה
דלפמ"ש
והורי
##מוחזק
דעבדי
ללוש
האפוטרופוס
בערבי
ונתת
משערין
דחזר
במודה
רנ"ג
כוב
החותם
הקלו
ותמהו
נמשכת
והשבתי
החלות
כפולה
ביבשה
קביעת
בחלל
הזכרים
##נחריב
מוסב
##דקק
דתוך
לתובעו
ממנין
חתנות
נזד
סטרא
סבורים
מעיו"ט
נשבעה
זכרונו
שבירת
הנפשות
שילא
חללים
ולבני
שלהי
שניתנה
הגי'
מופר
תובעין
דכת
בשאלת
להיכל
במיל
הנות
מדתניא
לז'
תפשוט
זכינו
המאוחר
שציין
##ג'י
דנן
סדין
לאמור
דכבוד
שמעה
תקרובת
ולהק
ישתנה
ירבו
##שיטתו
כשאדם
טרחא
בסוכות
##צצו
מערה
בחיבורו
וגזרו
לתפילין
##עותיו
##דרי'
הפלגה
ענוש
נמנו
##בורך
ביסוד
קנ"ז
והצד
כהלכתו
נגרר
יגרשנה
שפחות
דשה
##לחו
##מקי
אחרונות
שכמה
ונכר
שיודעים
בחותמיו
דחוקים
##לותא
ביש"ש
ויעבור
שנדפס
##ננת
ולחוץ
יביע
לצרכי
מדפריך
אשל
כפו
מעשיך
והדרא
הנוסחא
זמנין
##פויי
והלב
במ"ע
כשנתן
ופלא
שמוסיף
הורג
בצרכי
בסמ"ג
לקושית
דברת
ובזו
משמי
##קלף
פעולות
טופח
מתקבל
כשג
נגנב
עשות
וקסבר
לדחותו
##טחון
שלג
וממש
וגרע
הסובר
לוגמיו
שיני
כתרי
עשייה
מעצם
הגיעה
בתמוז
נקובה
##גאה
שהנה
דאיבעיא
ושנ
נופלת
לישה
השו"ב
אסרי
רצונך
מפקיר
וצונו
יקי
שאסרה
בשבעה
מכרתי
קהלות
וכדאמרן
הקשת
למיהדר
יצה"ר
עזרת
הוליד
למשרי
לצרכו
המ"ל
העינים
כשהגיע
אשתך
מחלקין
אוהבו
ומקרא
מאיסורי
שביארתי
ישועה
לכרמלית
שחתם
##געו
##כבש
נימו
טליתו
ומחו
מעיל
משו"פ
זצללה"ה
##ותרת
להעבירו
חילוקים
מצטרפת
שולחנו
שינת
##כינא
ובט"ז
וגז
חדרים
עתידין
דאהלות
זיי
דאשר
בפאה
לגז
##חתמו
##פשף
בשומא
במאירי
במדינות
וזרע
שאילת
אפטרו
נקטיה
ודחינן
גוביינא
##ערי
דא'
דקרוב
שהוזכר
אזלי'
דוש"ת
ואצל
הגויים
ולמדנו
הסמוכים
בעק
לקטנים
מגדר
מנר
קורבה
ש"ג
שנבלע
דזכה
להשפיע
##קנויי
מאחיו
לאילן
מהברייתא
##מבטי
יסמוך
הטומאות
דבכהאי
שמלת
בכבד
לתי'
כחוש
##זכרות
בחצירו
ונקי
שטבל
לקדרה
הביצים
סביבות
הדר"ג
לאינו
שמיד
כשחו
עבות
דגרסי'
לברייתא
בביתי
לגירסת
לטור
לבריא
דמצא
כאשתו
בבאר
כרכים
האד
ממלאכת
פיינשטיין
וישאר
פחת
ברי"ף
ברשותה
בשומע
כשהמ
דהמלוה
אושא
ש"ו
##ינותי
כשיע
נמוקי
וחכם
וחזי
המונח
ארם
חיותו
רל"ב
במות
הסכום
דרוסאי
חמים
בנתיים
##גודדו
כפירושו
בנביא
דבאין
מיושבת
לאורו
העק
לק"ש
דחליצה
נוצר
בנושא
במלתא
ועשיתם
כחר
להגר
וה"ט
ות"ק
המעמיד
##זיבה
ואותם
בחתימת
מפחד
אריות
להקים
לקברו
הליכה
שימי
התחילה
והראשון
ואג
באקראי
הסוד
לר"ג
בעה"ת
ואיננו
במסור
מחק
לאונס
קנ"ו
צל"ע
היקשא
זיכה
מזק
מז'
להיותם
ויצחק
יהודית
כשיבא
מליקה
בזדון
פירקא
##ונדק
תרנגול
צואר
המצורע
מש"פ
אפרו
ואיברא
##יננא
כחצר
במרו
והכ"מ
בהתא
לכף
האמוראים
שהארכתי
בצינעא
המט
הרואים
בחלוקה
שו"ב
בדברו
שמונח
השומן
נעילה
שסמכו
דנהגו
עשירים
כמראה
##נטו
הפנאי
##סרת
##כנז
דפוסל
##לוגתת
תפרע
מקצה
המע"ה
##ריוח
דבדין
##יעורים
סיפור
הנ"מ
וא"נ
בשקר
בבדיקת
דאמירה
וחלקו
להקנותו
דכוותיה
קשת
קרבו
המשאיל
ומזלות
שמירתו
לקבורה
ואבי
דמתחילה
דברא
לכיס
דחינן
איתיביה
פטרה
שיום
השאיל
דהמת
הכשיר
הגור
בחרו
מאריה
גדלה
ויחל
דילה
בעשר
בחצרו
היריעה
לנפשו
שהז"ג
והאחד
החזקות
השדות
בעץ
הדרת
דגנך
סוגיין
אפרוח
וקיב
אלהיהם
שפעמים
לובש
סובב
##ה"ש
רביה
אישה
מעובר
להשקות
והוש
יתקע
סומכוס
אשב
תקוה
האיברים
עומק
עזב
קוראין
מאם
##חורי
נסיב
קניית
מרומה
##מלק
לדמותו
ושליח
דעובדא
##בעות
ואחיו
מתוכה
לטומאת
שהיינו
ומתחיל
וחסד
דלהוי
בתקנה
ליפות
כוכב
אצלך
בכוונתו
##פלוגי
באנפי
במדות
שכינתו
בבראשית
בקריאה
בישו
בטלין
בירו'
החובות
מזרחי
מציין
בצרה
דבגט
בשן
ההפ
הניחה
דיכולין
וקונה
כבו
טעמם
ומוריד
ושבעת
##עורר
לבש
לגרוע
שבארתי
ההשגחה
##מיצה
##בורר
ורחב
תעביד
ולדינא
שהמצוה
כמותה
וכמעט
אפשיט
והר"ב
מברכות
העתק
ומגרש
הדפוס
סק"ט
וכר'
נתרפא
מטלטלים
ופורים
כמו"ש
בהרשאה
לפדותה
חוצצין
תרעומת
מהמשנה
ובתי
בלשונם
יחס
יחשבו
השניים
הגזלה
שבלע
ואבדה
והתו
העולים
מתמיה
##חרור
##צתן
מנכרי
השובר
להר"מ
הגבול
דמהא
פריצות
בהמ"ק
ועשאו
מעיו
לחומר
רומי
להתלמד
מזוזות
צומת
מחשבין
עוסקים
##פיץ
לגנוב
והנך
לקונה
אדוניו
דקר
וישם
כבודם
וכדמ
הרגשת
להתיישב
בשאל
למקומה
לשלא
המופלא
למדתי
הכופר
בדומה
בגנב
נאים
##באו
דידו
למשכן
בהגבהה
חיבת
למלוח
לגזלן
דבשטר
שהוכחנו
וכותבין
שהכרי
בדינו
החזירה
כדפריש
עקירת
חידושו
סתימת
שצו
ובמג"א
פריו
בהבנת
וחג
שלכך
שמכניס
מחולי
בוראו
שלקחה
##מ"ס
השלו
יעמיד
פעמיים
ומשקה
מוקפת
מיגאש
כפשטא
מכהן
וכוס
אתתא
ועלתה
ובתשובות
מוהל
מריבה
##ויא
ומנחה
יקרים
מתוקמא
לערך
##צטרכו
ראהו
ליצ
דברה
ההגדה
ובימי
אבת
דיסוד
כמוהר
נכשל
שטוב
והמג"א
שהוש
שאיננו
##מיח
למהוי
הנבראים
לנעול
מפלג
##פילות
בחתו
בנזקין
##יאים
שבשו
במוקצה
ויקם
בהרמב"ם
דאיתרע
משכיל
בעם
##פיים
##רגמינן
המתירין
##גיר
##נחים
##רונו
הגה"ק
האוכלין
מאחרי
והשלישי
##יהר
##מיכות
האמתי
הראנ"ח
##נקין
לאפרו
שאל"כ
ובסו
השמאל
יתור
כנדון
בקונט'
שצ"ל
ותצא
רוכב
נפדה
חאו"ח
המפטיר
לפטרו
למטעי
שמתחייב
בכיוצא
הס'
שגוף
חלקה
תוקע
למגזר
נאכלת
ליבמה
ומילה
בנימן
בהשג
מדייק
והכניס
##בלן
קנ"א
כרבן
הנהגת
##טריס
הביאם
במוסף
בעצמות
ייחד
משגיא
ובמס'
לחומה
שזכו
אגרות
מורכב
תפיסתו
והולכת
מרה"י
בנתן
המעו
מופנה
באינה
בעיין
בנזקי
כנענית
כחוט
הכרעה
לחלקו
לסטים
אודיע
##זע
לימות
פרצוף
אכילתן
עלות
החזה
הזיתים
שנמסר
##מ"ב
והתב
##יבוי
בח'
לקושיא
כמד
דהלוה
הסנהדרין
ותנאי
מרחם
נשמט
מכוונת
הנמכר
ובמד
##בעם
פרטים
מג"ש
מרוח
ותחת
והולכין
יעבירנו
הודע
ימיה
סדרי
שברים
##פנא
מבבל
##בוץ
משלשים
למועד
##כ"ח
##לאת
דעולה
וחמשים
##פשטן
דמיחזי
מיימון
ישהה
דע"מ
בשלטי
בלוה
##טולי
או"א
##עתיקו
הרמ"ע
שעליהם
וכההיא
שיגמור
רוקח
##יהיו
ולמו
השגות
##צהר
הה'
##גוים
##לתיה
משלמים
כעושה
הזבחים
מגילת
גטין
מקוים
##קוד
ואטו
דהפ
הדליק
ביוהכ"פ
##זבון
ההוצאות
עילויה
##ורס
לאם
הארבעים
הסתירה
קצרתי
ההסכם
##ורדת
דאזל
מה"ר
לימד
##טרוף
ובנידון
##מר'
דהולד
##דיינים
לזונה
בדירה
שמרים
ודגים
עובדין
העירו
משו"ת
תבל
המבדיל
האמורי
לבחור
דלל
דכותבין
עציץ
משלהם
היתום
שבאת
דמפיק
##קדירה
ממשו
למשפט
שזאת
שמוציאין
דחס
ומדקאמר
לשמוח
אכולהו
ששלחו
התעוררות
לאבל
והשם
מנהגינו
באבידה
חמורים
הבינה
פרות
יבקש
בצדה
מצבה
##סתות
דמומר
בשליחותו
נניח
שקדשה
בת'
מתרומת
פרת
לסיפא
##רשם
פעולתו
לדידך
מורינו
תגבה
של"ד
זוזא
וישבע
מצטרפות
שאחריו
בוי"ו
להטביל
ובגד
לש"ס
לכשר
הקיבה
##קרר
בהקפה
דלעילא
לשאינו
שמחייב
מחלקים
והגד
שהיד
דה"מ
ועצמות
הפחת
דבע"ח
בערבית
לחלוטין
שהולד
ודמיא
ממחרת
הל"ת
כרותח
מיכ
המלה
גבורה
תקרי
נו"ב
מביאו
למלאכת
מומחים
לכבוש
שערה
ובד"ה
מחשיב
לקריאת
ידבק
כשמב
ואיפשר
לגבייהו
קמ"ג
תבואת
המסדר
ליטמא
דבלשון
היאוש
כשפופרת
בידן
נפטרו
ארוס
ספיר
שהדליק
החלקים
לשתיה
תשעים
יראי
דאמוראי
יעבוד
וס'
בטהרות
##כולן
תתגודדו
דשר
בשרץ
במלקות
כתובין
דלדידי'
המנחת
להעשות
חטאתי
והב"ש
##ניעה
להוראה
שהלוהו
ילמוד
מבחינת
##צ"ש
מבעיר
##מראית
בשוקא
ילפותא
עפי"ד
יפריש
נטו
##ולעת
ישאו
יזכו
##דשה
בכפר
##גיית
דידך
ילין
סור
ת"כ
##וו
לדרב
##טענת
##רה"ג
כרש
תקפו
עונו
ביציאת
תמהתי
מע"ז
בחוש
ונתב
בגג
דחמרא
להתרפא
עש"ה
ברעב
מקורו
דתקון
##חקות
ויעמוד
שאחרים
אקב
שטרותיו
מצרימה
##כ"ל
##מה"ח
##מעין
##גלית
תקס
בטלי
בפסולי
קל"ז
ככרות
שמעי'
הזוה"ק
כגר
כספק
ובאים
קאמינא
שהאיש
מפקפק
אשורית
##ריז
לאד
הל"מ
בבשרה
דקס"ד
דזמרה
ברובו
דביש
לחלוחית
להעלותו
שהתה
אוירא
הכרס
בסידור
טעי
ההשת
דחולק
רוחא
לקרותה
כהדא
נענה
כמש"ש
והשי"ת
הנדור
לקלקל
מלש
מזוני
דפירות
##בריך
למקרא
דשח
קמ"ט
זרוק
המיוח
שחוץ
מתשלומין
כמוציא
שהרגו
שכשר
ונמלך
הונח
דשעבוד
##כסי'
מעורבין
השקר
למז
נתפ
##פותיקי
ולולא
וחתם
למב
גזבר
וכשת
דאסרו
דתפילין
ממהר
##יפים
##נקים
שהשת
##נוז
ומפרק
ממצ
תקבל
לצלות
ערלים
אפרש
לפדיון
הכירה
דהאב
להודיעך
הגדיל
הפוס'
קברי
עליות
דבורו
ראשים
אמם
הנקראת
באל"ף
של"ה
##וקש
דהו"א
זלזול
##יניים
להד"ם
דשמעון
האיפה
תאבד
שמיעת
שנשאה
גניזה
הנוהגים
תמ"ז
להפוך
דאותה
הרצועה
יוצאי
מלכ
אזנו
לכלים
ולהורות
כמצ
יי"נ
תמכור
מהבעל
דחיישי'
לרקיע
מברר
שלחה
הבק
ההפרש
##גיס
שגבו
פריעת
למשקל
ונהנה
שימכור
מהרח"ש
וימת
ובעו
לחזקת
##ציאתה
שיתחיל
שהאמת
##ודד
אלכס
נפטרה
יצילנו
ד"
##תונות
אהאי
ממזרות
המיוחדת
והלל
##תה"מ
דריסה
טיפת
מדקדקין
##מונות
בגופן
לקחתי
##זד
לכותי
עניינים
העלין
משפחת
גיטי
בקוביא
להתרחק
דצר
להרים
מדידיה
וז'
תקן
##נקסו
דקדשים
יורשיה
החברה
מכללו
מוחזקין
כעומד
פוחתין
גרוגרות
ק"צ
התה
אסיקנא
והפריש
גבורות
שגורם
שסבר
ליו"ד
דאכיל
מהצד
ומקור
הקושי'
במעט
##מטיא
אצבעותיו
כתו'
למידין
דברכה
בנקל
מצווים
מערבית
קפדינן
שבתון
בסכנה
בסייף
מלואים
שבן
שווים
וקצ
כהנ"ל
נסמוך
מרווח
יגרום
ומאז
נחלתו
עה"ת
ומפורסם
##יטע
דיינא
##דותא
ישארו
מיתוקמא
וויי
דרגל
בגזירה
גבן
קצתם
באבני
פינחס
##ד"ה
דמיתה
שו"ר
הגומל
דצי
לחמי
שתלד
##זיז
משתלם
##נשמה
עיו
##יליד
שבצד
לשטת
##לימוד
בליש
וכלשון
בהרגשה
תתגרש
המסו
מחולל
בנשואין
כהראב"ד
כנפים
האומדנא
יטל
##ירק
באורח
מחליף
בקצה
חומרת
בי"ג
והקריב
יכנוס
פונה
כמו"כ
בבנו
שרירא
יטלו
ונדר
וששה
דאלמנה
דטהרות
לכשא
הראב"ן
אההיא
נסתלקה
תקום
מהבית
לוין
הכבשים
נתלה
מנכה
##מזיד
משתמשין
שיקדש
רצועות
##תארמלה
וקדשיו
בסגנון
דתפיס
לנזירות
כחץ
הוכחנו
דוי
הסכם
דפאה
קמ"ו
ומרדכי
דה'
ומשב
דמחויב
אלילים
אילונית
מקדושת
כהלכתה
אט
ממים
נלפענ"ד
שהגדיל
השלימות
שלאח
דבעו
שמעשה
באיזו
מחוסרי
שכחו
נשמר
מודיע
ליוחסין
ויאכלו
התימה
תרג
מהתוספתא
המכש
למעות
הבלתי
מוליכין
ירבעם
כרוך
השעורים
כשפ
דצריכין
יברכך
שמג
##לימא
לתפילה
מצותיו
באבנים
להפסידה
ניצוצות
מפקיד
יורו
בשיטתו
בכרי
דחבריה
שמוכח
גורסין
דפרכינן
לרעך
##יאור
המלקות
אוב
##קוקה
העשרה
המוקצה
רציחה
נמצינו
##ואף
נשרו
שמנונית
גבי'
קצ"ח
בתבואה
כגוונא
קמשמע
##חשיב
דלכולי
בקמח
למדוד
ומקורו
פגול
ממקומה
שתמצא
עיגונא
לשלול
שפי
מחיר
קומה
מטעמים
וגט
תרו"מ
מיהודה
בהנ
שנחקרה
הגפנים
החורף
לקשור
מסהדי
ששיעור
##לב"ח
##שלחן
בעש
דבורים
ואפר
ולרא
ובשא
ידי"נ
המחמירים
שמעתין
בחמור
הוע
לישת
##חמם
דמקואות
המבוארים
חתימתו
מהרא"ש
ושטיפה
חביבה
וקדוש
תובעים
דנות
האס
הקמה
מכשירי
נאמנה
ויהודה
חרישה
לשקול
ואיזו
למיתלי
##מוהו
##עיז
##קשי'
##יגול
שנקראו
שנכנסה
והפר"ח
בשעיר
בארוסה
תאות
המתעסק
תהלה
המקובלים
ומלקות
איפה
ונותר
יהל
התקיעות
משמטת
האזהרה
ולצ
מפסדת
הסירכא
לגלגל
דבנו
נבעלתי
דמסתברא
שיגבה
בולט
דמתא
לשמי
בנטילת
חזקיהו
תולעת
התרגום
בתם
שיריים
תימר
מודר
כמתקן
ונראין
זע"ז
דקנו
הוכשר
דנג
עמוני
למידרש
שילה
שכור
דמרבינן
ירדתי
סט
ובחמ
בעשרים
כשנותן
נעשתה
יסודות
כמחצה
זכריה
המבטל
המנ"ח
בסאה
המוקדם
צוואה
האחרות
שנחשב
לאוי
להנחיל
שירות
מסרה
תחיה
כשאוכל
דיוכל
דפלג
זוהי
יו"כ
דעתן
##רח"ש
בארצות
מפליט
יכש
כוי
דמלאכה
הבשמים
שע"פ
מראשית
פקודי
ששימש
ואינהו
אלפא
לקודש
##חררה
דחקו
המוק
אנפין
מהר"ח
שהשני
שילכו
הפנימיות
אזוזי
דהוכיח
התל
היל'
וקרבן
בפרעון
##יתרמי
נחתינן
שנתה
היוצאין
הדיעות
נשבעת
נלפע"ד
הערך
החלום
דנחלקו
ואיצטריך
ממשכנין
שיעברו
להסכים
הממשלה
דמפק
מלפ
מרפא
מרגליות
הזכירה
שקרוב
כבודה
לאינשי
שתדע
יעידו
וחמץ
בפירקין
המותרים
##טעמים
והגהות
שהצד
אלהיו
##טייה
גבוהים
גילוח
ליקו
הסכ
הימין
שטף
רצונה
דמסברא
דקאמרינן
הגלגל
ליראה
זיכ
##פיהם
אתמה
באוהל
שבכאן
##ליצת
ששטר
##סקין
ירמי'
דבהאי
יזכור
לשנותו
תולש
היתירא
והיותר
##צועות
החזקת
בחופה
ממלקות
מגדול
##חקור
נדריה
ענ"ד
לכתיבה
מקשו
ושלם
##דרס
תחטא
ויקבל
##ק"ק
לאזהרת
השידו
בדינים
##נותם
וחות
במהדורא
שנתכוון
מקדשה
##טפין
דרח
לידון
ימכרו
מקיימים
##שיע
דהתוספות
לחרוש
ושינה
ההמון
וסברי
חמישית
דאורחא
##צכם
דמזיק
הסופרים
מסברת
קנייה
ויחזיר
בנשת
מרגלים
השומעים
תמור
##פרעו
שבארץ
ומוה
העולמים
הב"ע
כרשות
חזן
שיבואר
עילוי
##ירן
לשעבוד
דמתרץ
קרויה
בהדחה
מחזקתו
יכניס
לביאת
##דהו
דחייבי
##וקץ
דמצריך
וירדו
פקוד
שנתעברה
ובאיזה
דלוי
בדרבה
שמקשה
##כותו
בקליפה
תחתון
##פידים
רצונם
סיפר
החדשה
##נסא
יתורץ
##חזירו
##משא
ועדות
לשכירות
##פיסת
תחול
בפי"ב
וסתות
ככסף
בכת"י
יודיע
שווי
הזול
יורשת
ובדעת
ניכרים
להדיח
בשכיב
באמרם
הפורע
וליתני
המכתב
ברואה
ושמור
שי"ח
היושבים
עודנו
ארבעת
שאותן
וגוף
מיג
טבילתה
משיבין
ככתב
צמיד
##רוהו
בעובי
חזקתה
להחזירם
וביקש
מחתא
ודיני
והרואה
יל"ע
אונקלוס
##נצל
שמתחילה
מסתימת
לנשיא
יבשה
בעצמך
קטו
דנחית
תקל
ארמי
המושל
נוכח
אוקמה
וחולין
ירמיהו
בטענתו
אחאב
להיתרא
בא"ה
ויצטרך
מגזרת
ופוסק
בצמר
כחם
כשאנו
קע"ז
הדינר
שחות
וישלם
פטירתו
נפסד
פחתו
שנותיו
הבמות
החליף
ונולד
נקנין
דדמיא
סג"ל
קס"ט
קפ"ז
ובב"ח
ארעי
##מניה
ומדי
דבכי
ונחזור
לזק
ושכרו
מסתלק
זתים
בשטרא
בהשת
הגרגרת
מפנין
למיטעי
רחבו
דבזה"ז
כדפירשתי
ובמרדכי
לדידה
כקושית
באגב
בעגלה
שמנים
כאש
מברכינן
חצאי
מתברר
נמשכים
חמדה
נקיבה
כוחות
בסוריא
##יותה
צרפת
##פסיקא
האסורה
טבעי
גומרין
הנמש
והרא"ה
שהוכיחו
תירוש
העצה
הראשו
##בו"י
בטוש"ע
ויחי
##מנינו
##ברנו
ולצאת
##טוח
איבד
גרירה
ומוד
ומודים
דלאביי
אנד
כהרמב"ן
קופות
##נכם
וגיד
דמתקריא
להושיב
סיל
הה"א
כחול
מלוח
כקש
צמא
##ק'
בדידיה
ברורות
זוגות
##פונות
שהרי"ף
לזל
סות
הוולד
כרשב"א
טרחו
וכדאמרי'
ריצוי
דטבל
ייחוד
##מג
##ייג
##קבן
תשר
מוכרים
אסון
ושבח
הוספה
באכל
מקץ
##דליקין
ואנוהו
זך
המכו
הכנסה
##להבת
לחה
דדבריהם
יפו
בשכ
לאומרה
בה"ש
##מעה
וגד
##יטבול
##ידד
מפי'
מורד
להשהותו
מיכאל
שאצל
האמירה
שלים
אחדים
ורשב"ם
ששתה
שררה
דרשאי
דרשת
ההיקש
דתקנת
דד'
והניחה
דברשות
##טיפת
הדוחק
ניצול
מפרוטה
ויכולים
בפה"ע
##וסרת
כפשוט
שזור
וכלאי
מהדדי
שיעיד
הבחנה
ועור
דמצה
הסימנין
תשיעי
המקריב
נשבעתי
חמישים
להעמידה
שושב
כראב"י
בתנו
יוע
##סתמו
אצבעו
נשתתפו
משמרות
##מעאלים
וארא
שהכהנים
מודדין
##נב"י
צלול
דנחשב
משכנות
העזרי
##טהורים
טומנין
ומשמש
בתיקון
לשמחה
היוקר
מנהגו
וקבע
כהש
עננו
ומחלק
ובגל
שמחזיר
בתרומות
בבקעה
חיותא
טא
##וחים
האמית
איי
##נגולים
תשובתי
הצלמים
הגבאי
##מכה
שהונ
ונצ
מבניו
הצריכים
האוצר
להשתכר
הפוסקי'
והורה
נטיעה
קידושיה
אדר'
וחוזרין
אלישיב
נחה
לאדון
וחבר
המוספין
דכלל
תומים
והגט
סבת
דאיב
##יש"ה
הדפנות
ולפ"ד
##לביש
שהוחמו
מתהפך
דבסי'
ובנותיו
ההדיוט
ושלחו
ענינא
ירידה
במכירת
הפלא
וישן
למיפשט
כשהב
לאביהם
דלוקין
אחאי
בשוא
ומכו
שנטלו
החולים
##ילתות
##פחתה
דשבועת
שבתחלה
דרשב"א
דאייתי
לטעמייהו
יפטור
דמחילה
הקיץ
להכותו
התגלות
בחסרון
מתיירא
##ערמה
לעשו
החוטין
האשכנזים
##יימי
ספקו
שמרן
מהדורא
בשמעתא
למס'
קיו
מחיקה
שחטה
##ורשיו
קיצר
סוסים
עוה"ב
תצוה
לאהל
בעצים
דביטול
מו"ר
הראייה
##חוטה
##צוני
חטאתם
שהחיוב
לאוכלן
##דקי
##יטמא
לביתה
דכס
כששמע
בנג
דחוץ
שמותרת
ננ
שיבה
דאפק
מתור
ההולכים
דדרש
ולרבא
##פותח
שגילה
לא"ה
##ישבה
למני
##פאו
בצריך
בשלמים
והגר
דל"ק
פסיל
כשראה
הצריכה
כשהע
ענני
בהגהה
כניסת
חביריו
##וקלין
טועים
ומג"א
ונכרי
כוונו
מוציאו
דהתירא
לפ"ע
כיפר
##קדשות
דרבנו
משאו
ניח"ל
שאותם
באנשים
בלילות
וימות
שקב
העלייה
ולדברינו
להגב
##נתיבות
שחוש
תמיהא
אי"צ
ופוסל
##שאי
והמר
בהוראת
##פסים
שהמלך
יוב
בחזרת
לדבק
איתקש
דעי"ז
הריא"ף
חימוד
דלימא
##ותני
##יאוש
שהפסיד
##סורו
בהר"ן
המקיף
כתובו
תחב
ניטלה
##פטו
דקרו
וכדמסיק
בעצמי
הבתולה
בטביעות
והילכתא
תהום
לשמרו
חלף
בשבתא
##קטנה
נטרפה
דגיד
והמס
מעי"ט
החוטם
חאה"ע
לוסתה
הקדום
נפגם
##ילתין
כבהמה
דמיהם
חיישי
שגירשה
דיניה
שתוקי
בהעלות
הש"צ
אבוא
מצטרפי
שיביאו
ובקר
דקידוש
גיסו
נצב
##גריס
והרש
דלמד
במוציא
חושך
להשליך
דמסיים
לוסיף
קולמוס
ושומר
##טמק
##מקא
##יאסר
אתרו
מדמינן
כדפרש"י
בתו"כ
תביעתו
ואעפי"כ
מהשתא
קלב"מ
##טענה
בצק
חנניא
כשנעשה
סותרת
לאוסרו
נאנסתי
גידין
##קיה
דתע
מכולן
ברהמ"ז
להשי"ת
בכ"ד
דפרי
ומדת
ניל
אוסיף
בעשי
דכשרה
הניתן
בעדותן
כדמות
ויעל
והרח
הרעב
דהמצוה
ולקדש
הקדימו
ולתקן
נשיאת
##גרים
##שותיו
חספא
כפרים
במרחץ
מתרצים
נתקיימה
עגונות
במשל
בדידה
לכלום
##פטרופוס
תברא
לבתי
ובארץ
ומובא
דמשמעות
נחשדו
גביא
ונית
כיל
ואישת
כדקיי
מסים
דילפי'
פרוש
בנאמנות
אסת
דיאמר
##חדו
במכתבו
##חת"ס
המוכיח
גרסת
והגאונים
נשרפו
##לאן
בשואל
שכותבים
התפיסה
ספקות
וכלומר
##יהרא
עלול
ומחזיק
ישלים
לעצים
בחוק
כדון
לגיטין
וחמישי
##טו"ז
לס"ד
נשיאה
ריקנית
העצ
ויסוד
גוזר
##בולות
ויכולין
שחטאו
א"ת
התודה
וחתום
וקדם
שחורים
נרגא
##רופה
שנבאר
מעבודה
להתפרנס
תוכחה
להרחיב
לאביונים
ללקט
בפע
גיי
לולד
עירה
דמחזיר
שמכל
תוציא
תרם
גאולת
הפרוכת
##ס"ל
##ינקת
מהלוה
התור
רבונו
ג"ע
מפירש"י
##ה"ת
ליג
שיבאו
דירחא
רותחין
ואזל
ועכו"ם
##פסא
מזהירין
##ירוסין
יעסוק
השמטה
בחרטה
והמעשה
שישלח
להריטב"א
עו"ג
דיורין
חרשת
##יבוץ
ואבנים
סמא
בתינוק
דרכנו
פרחים
אבותיך
אסאד
עיה"ק
##עג
ומתא
אחדות
##נסבא
ההע
והאדם
וכדלעיל
שנתחדש
##קק
היל"ל
ויעידו
כמאכל
מתחלתו
אליבי'
המגדל
שמט
וזוהי
פוסלים
##משוך
קבורת
להדייא
יברכו
##מינים
דבעת
כסי
תיראו
##ריחו
שהגאון
שנקרע
דדייני
לטובתו
וזבחת
שדם
ואנדרוגינוס
מהאו
ומדא
וברכו
שא'
במיני
העבריה
ואינון
##פרי'
מצוין
מהב"ע
ומכניס
##ייבו
בנישואין
מסוכה
הירך
##פשוט
##ריעות
להלוך
התפלות
חלצה
שטרך
מוכיחים
##צירות
והכתוב
השבות
נוגעת
אלקיכם
לארבע
לנדרים
עדיות
המרה
כפלים
##מחי
ור"נ
מגעת
יוסיפו
קבול
צמחים
לכזית
תפיל
##כנגדו
להש"ך
חמורו
תתקיים
פורענות
מדויק
ביק
##וארה
וממון
ולמכור
בברכי
להפריד
מירושלים
##פדה
וציין
בזרי
לטיבותא
##קדרה
לבלוע
כסלו
האויב
משתל
ויי
##פשרות
בערוה
בחכמתו
ותירוץ
ויוה"כ
בקונם
בחפ
לגדולה
##חמיו
מילואים
המרבה
הספקות
בזוחלין
דטעה
מארבעה
שעיקרו
בנתים
אחריהן
פוגע
נתונים
הועד
ברביעי
דאפסיד
שבטי
##יחתו
##קי"ל
מחומש
אוקמתא
כשעורה
ברחוב
פקועה
אגוז
כחל
##יה"כ
הביט
ביצת
בחומץ
ושוין
הר"פ
מעדות
ממיץ
הכרה
##קלת
בהלכותיו
קע"ח
משכח"ל
כייפינן
##חתים
מזי
ובאם
לידים
ממצוה
טעונים
ביה"כ
להגן
קרעו
בסל
דעני
רווח
קטניות
כתמים
נזהרין
##מטת
##ריון
דליש
אסורא
תלתין
קל"ו
השעה"מ
שכינתא
אי"ז
##נ"מ
שייכת
נשל
טענותיו
מכילתין
אכפת
עשינו
שנמלח
וע"א
החתום
לתיקון
יפנה
מהשני
לפורעו
שתבע
שהמעות
בתלמיד
אהדר
ופרח
סנה
##יווג
באיסורים
שהכריח
ודוחה
רוחני
בעבדים
ופק
ליתנהו
גמורות
משתמשים
מלומר
סוגי'
להנאתו
##מה"ז
בהודאתו
בנידוננו
שלו'
שטבע
הרצפה
נובע
##שב"ש
לעבודתו
שופרות
העוברים
כדילפינן
אחית
וחיי
ותיכף
מהראשונים
מכחישים
בקרי
##טוינו
וצור
ושוטה
דדוחק
כמדומה
##ציע
ואבר
הכ"ד
שקידשה
עבדה
ונתר
בעובר
##דיך
הנתב
לדב
וגמרא
וישתה
שכרם
מהלכין
בהקדמת
ושום
לצו
עזה
וביבמות
ונתבטל
בכ"י
שכלם
נשתעבדו
וסוגיא
ייח
לזריעה
שכלה
זזה
##יכום
מש"ל
החפצא
דכח
לתל
שכלל
##יגון
החוצה
ונוהג
תלויים
להטיב
הניתק
הרחוק
שיתכן
תבנית
ציור
ומקו
שחורות
שיבד
באלכסון
מקנין
מניעה
אגודות
נסתפקתי
וסר
##רבית
ומעות
גויה
קונו
ופסקה
##בתה
והגר"א
##תוחות
##לוב
הארכנו
מכריז
ותמיהני
סופן
הממ
החביות
ותרומת
שתעלה
דשכיחא
##פכין
לאסרו
דמברכין
בחסד
וחילוק
צדין
ושלמה
ליקרב
אגוזים
##נ"ט
והקי
הנמשך
וק"ק
דשואל
לנדה
##חטים
לקנותה
שבמקדש
השמיענו
חליצת
יעיין
יתרה
ורבי'
שיתוף
לטענת
קיד
##לויה
שבשבת
הצבא
דבוקה
וגרושה
##כימה
רוחי
משתת
שיאכלו
כיחיד
משלמת
למחלוקת
דהעדים
בהדה
וסמכו
לשלישי
##שיל"מ
מהימנינן
לרה"י
##ד"ב
##צלים
##כסו
אחותי
משנתו
פסיעות
בדיינין
חמת
בשכרו
ללילה
להביאם
דחר
השריפה
לגרוס
מנזיר
כמהר"ר
לטפל
יורדים
מדאיצטריך
להקיף
##קוע
חוות
הפקיעו
ובחולין
והערכה
להר"ב
ומרא
##חזירה
בשרש
ההפרשה
דפקע
ועושים
למשלח
הדקין
אלמנות
ותשו'
באהע"ז
לשלמים
המלחמות
ואתחנן
נברך
##נוד
ובפרי
החום
לקה
דתפס
טובלת
נוסחאות
דפוטר
להכא
וכק
למכרה
##ייות
ור"ה
בצור
לעבדים
חלא
יקל
רמו
##רידה
והמאירי
דמלאכת
שעשית
שחשש
שע"ז
בנזק
נחמד
אלעאי
ס"י
##דית
##רוגה
וחצר
לתקלה
##ניק
ראב"ן
נדבק
שיחזרו
הודאי
וליד
לחות
ובפ"נ
קע"ה
גמילות
בזמננו
כינו
מריב
להגדיל
דבסוף
לחמם
דגזלן
טובלין
שהעמיד
ינוח
מעורר
כאור
פתוחים
ג"י
##וחה
ומגדל
דעב
ושבעה
הנאמן
ערלתו
הבירור
שווה
שיחין
במעכשיו
##יגית
גליא
דבמתנה
ד"ח
תיח
##תת
לחס
דקלא
##רקב
וכשיש
קירוב
כפיר
##ייא
ואלהי
זוכים
דמשק
שבחצר
נתרצית
ותבע
מינא
##נחומא
מקפדת
שטוע
##נ"ה
##כט
המזו
לבגד
רווחת
וסמוך
דחייל
מאחוריו
המעין
##כרזה
##מדד
ההז
במצותיו
חקת
מהפך
מעכבים
אלגא
ולקחתם
וריח
חפר
##גדם
ובכי
וחומרא
כפה
נעים
והכהן
מסתם
##חשב
אבשלום
משולם
נהנית
ומאכיל
נתבטלו
שמסיים
קלל
משיחה
דאורח
באית
דשטרי
כגוף
דשייכי
לבחינת
הטלת
##פז
להבריח
ממטלטלי
יער
למימ'
שובך
דבשני
משגיאות
סוב
להלכות
##ידר
מהסוגיא
משלוח
הגן
הדרש
אבימלך
במלחמת
תכו
יתירו
ובהדיא
למשכון
סנחריב
מד"ת
לנסוע
כקטן
שרוי
##עסקו
שסוף
והוק
ומטר
שעדין
בקצה"ח
דשקלים
המוזכר
לנהר
תורות
ומפי
ולבונה
שכפר
שכולה
דלשם
דשן
##חקין
פתילה
שהבשר
פירושה
בעציץ
שמסיק
וחציה
אזן
##ריסין
דהקושיא
קערה
##טאה
מצרן
תאמרו
ערים
כמוני
מימין
להתעטף
חלוץ
והחכם
אוש
##מטות
##שוו
ונתבאר
בפר'
בשבילם
מאמרות
טלי
לעומר
בקולו
##יותיו
אוכלי
ענייני
גילו
##ביש
ובעד
החפצים
לש"ש
כשיח
דחדש
דטוען
יאר
מהות
ועצם
כייל
מצדו
בחולו
לשתוק
נקיה
במחילה
דאזלי
נזכרו
לשביעית
בהגה"ה
בענן
בסמ
בתיבת
חדתא
מזוג
מכש"כ
האמורות
שגדלו
לספיקא
ממשמעות
בסימטא
##ריץ
וברא"ש
משכנו
דמקשינן
יומן
טביחה
מיקרו
רוע
והיות
בסודר
יפחות
##מבד
##ילד
##ייעתא
מדנ
ממשיך
הפרמ"ג
טביעות
ובטלה
דל"ג
כדפירש"י
##כריז
ובפי'
בחקירות
בגזילה
ומפק
שכ"א
מדידה
##כנע
דסוגיין
שהרמב"ן
גמרי
עקומה
שיניו
שנעלם
ותמיד
גבינות
לאחלופי
החומרא
תתנו
למרחוק
לארעא
##חייהו
בציון
כותלי
בהדייא
עכו
מקו'
##סימה
לראשונה
פשר
דקרבן
והרגו
##יה"נ
ומפיק
בכא
והעולה
התופס
##יוהו
מחכמי
והאיסור
הרחיב
לכבס
תשבו
שמשי
וכשמת
אובד
תשק
עי"כ
גיזה
בשתיהן
השערים
##מיטתיה
##יכולת
דזימנין
כדרכן
טיבו
י"ש
בשכל
אפיק
ותשב
דנכסי
##פכת
ולבי
הכפרה
הוזק
##דותי
בפיה"מ
האזינו
ארך
דעלה
יקדשו
מכונה
##כ"ס
לבשלו
ומטה
ממשות
ביהכנ"ס
ולדידהו
המרגלים
קמיע
המקובל
סמיכות
##ורגמן
שעקר
ורמב"ן
יקבר
כשנמצא
העתיקו
שלב"ל
שהלו
שכ"ה
העמודים
בחבורו
בהוצאת
שים
בהרח
דמסר
בחב
לגוז
וקידוש
וקצרתי
קונטרס
כלבים
לקרן
דק'
מראשו
דלר"ע
יצו"א
במחתרת
לחילוק
##כוכית
כשהש
##קשט
בכופר
הגליון
יריחו
עיקור
למילה
ונפר
נכתוב
הפרת
וחייבים
כמור
שנשבה
שמינה
עומדות
שהאריכו
להשני
קבלנו
לסוחטו
להתייבם
##לדות
למכירה
ברד
ברייתות
בשעתה
דהמקדש
לאיתויי
ווייס
והמל
ובבא
הכיסוי
ארחות
לחנכו
##ואתא
השורה
פרשו
דיקא
פפי
##לתה
לעור
חש"ו
שלישים
חוה
מתורתו
בנגיעה
מספרים
ותשובת
דבעיקר
לשעבד
בכני
תקרב
בצנעה
ואומ'
ופוטר
##כלוהו
שהיית
דביאה
מוזכר
שקלא
השייכים
מהגמרא
מהקדש
אתוון
דאוקימנא
גגות
זז
לחמו
היורד
תניינא
##רי"ו
וללמוד
התפללו
דכולם
וקושיא
לנביא
המערע
רע"ו
במקו'
להמנע
המציאה
מבטלו
וקורה
ידיעתו
##קלות
שגובה
לשלומי
בהעלותך
לשטרא
בניכם
כבתה
לכופה
וצדק
##סמת
##צהרים
יטמאו
##דרא
##שיבות
ילפי
ובעיר
עה"פ
מלכו
שי"ן
##ותבינן
ואיזהו
שנצטוו
וכשרה
ובער
הנבלה
כדברים
בפרטות
המעור
שהוצרכו
קס"א
שיטעו
ועומדים
המגו
בששה
במ'
##מעיקרא
מחצ
ושפחה
וזכור
מתחלל
לאורך
הרועה
שמשך
דמוקצה
משרשיא
הגורן
לקטנה
שניטל
הורצה
הלומד
אדעתי'
תאומים
דממעטינן
שקיבלו
רמ"ג
לפרי
החקירה
הקישא
שיפה
מגב
בהסכמה
דראה
וכע
##מהו
שנשרף
ונמ
בגזלן
אביב
לתכלית
פולט
וזרקו
אלגאזי
לאט
שנ"ל
עונותיו
ונתינה
מודד
פתחא
לקוץ
ותבין
דריב"ל
ותובע
נ"ש
##פ"ת
##קס
ולאסור
התיבות
לשחררו
וחוש
חלתה
השומא
זבינא
לחשיכה
דואג
קשי
הבירה
גביית
למורי
שיקבלו
משבט
המפורשים
ומטלטלין
אימה
הגחלים
למהר"י
מרום
חשובין
ובדף
סגור
שבספר
אורות
גזיר
גמול
לביטול
ושחטו
ומתיר
לשבט
מעתיק
מכסין
ראויות
בצים
ספ"ק
בכרך
שתיקן
דמעיקר
לפרשת
ההרשאה
שהשיא
##יבתה
אגיד
שבור
שבקש
ללבן
הפרקים
קמיבעיא
הדבוק
רפאל
זמנם
להלוה
בהדדי
עמוקה
הרויח
והנורא
לנסך
היכרא
כבא
להועיל
לכפות
שחיוב
והאוכל
בעצמותו
ורישא
##רייהו
להנהיג
שתס
נפלאה
שאיסורו
נגזלת
פנוי'
בחמישי
ביזוי
המוקד
שנאמרה
שטענו
##נייהו
בשפופרת
משחית
החלונות
לפי"ד
בנותיו
הטבעי
למישרי
ביי
רוד
והייתם
משגח
להחליט
והזיק
והקנה
וללמד
באצ
שודא
##מועי'
דאברהם
הנבילה
הדרים
אודי
ח"נ
##נדא
אפיקור
ליהושע
דרג
הסיפא
##דומי
אומרם
תתע
עמודים
חוקה
##דנו
ממטה
לקשר
הפלוגתא
בני"ד
תהוי
ארס
קל"ח
שהעכו"ם
שידור
וולדות
וקים
המומר
כסבור
שנתקיים
הנזקין
מאתיים
בעליל
כולא
טוחן
בבדיקות
פגומה
כ"ץ
##פולי
והצל
##בר'
שמעידים
חסרים
ולסמוך
ביכ
מטלית
מקב
כמחובר
דהגט
הכרעת
ויקה
שהתובע
דבמח
לקנוניא
ושט
כנלענ"ד
להתירא
יותן
ישכון
בגא
מגין
עורב
יכסה
דפסיקא
בדד
העשירי
ושמונה
מנהגים
שלימים
סי"ב
לשנותה
שנגמרה
##וגם
דחייבין
דולר
וצא
התפשטות
לחים
שחולקים
דצ"ע
קרק
קשין
ובמאי
הנעל
##וסי
כפייה
שהקרקע
כמבושל
הקביעות
ושער
נתרבה
קודמים
דטעמיה
ולרש"י
וטהורה
##קבא
ומקיים
דודו
המצניע
להכחישו
המכות
בעינו
שכ"ח
ורצון
הזיקא
ואחריך
ולדידי'
ערכו
שתחזור
צריכותא
איקלע
לרשעים
וטבילה
נזי
והודיע
##מיטו
הנולדים
רגליהם
מריקה
ממטבע
##טלטול
כשאינה
נצבים
ורוצים
שהוציאוהו
שממה
ברייתו
הרוחות
מדרגות
קטרת
משטר
הרואות
פרצה
בצמצום
כרבינא
קושיתם
דהתירו
דתוספתא
חץ
תטול
בסימנין
##ומרו
שעומדים
ר"כ
הארו
שעירי
בנבואה
מכללא
שיודה
##מוקו
שהורי
##ויץ
##וסתה
החוק
כרמו
יאריך
##ימ"ל
צבוע
בתולות
נדחין
ומעיקרא
דינרי
יריעות
לאבותינו
ישמור
שוכן
כהרב
מחמר
התוקע
עשין
שהבהמה
לשחוק
ידמה
דספרי
בשומן
האו"ה
מיתמי
וילכו
ונפשו
שפירוש
סוכת
דמדמי
כהר"ן
והמא
##נותיה
##סתרות
ארזים
לחשש
שיפרש
אדמת
חששות
שיתבטל
האלהית
בצאת
פעול
והסברא
האליה
הנאמרים
##מק"י
##זריע
##קוב
שהמעשה
הכניסו
דסיים
##ערכת
חוליא
שהאחד
דמדלא
פקפק
##ברתי
כמונח
ההפטרה
בידיהם
הזית
הטמאה
ולזכות
ועדיפא
דמצינן
מו'
וביטול
ועובד
החטה
##נתינה
שיווי
בקדושי
והסמ"ע
ארוסתו
תחזיר
##עף
בשעורים
בחמי
בנדבה
וערבית
והרוטב
שליא
ולראות
ובשבועה
בהקדם
יה"כ
מימים
הוג
מסך
הצבע
כדאמ'
אע"פי
שאוכלין
דבעלים
דלקי
כאבא
יערב
ולהחמיר
קמיצה
##קשים
##+.
ישיג
ועופות
דמתה
כלוקח
חשבתי
מרבבה
בדיבורו
##נינה
לקושטא
הפסידו
מילוי
דבתרי
קפ"ח
בעבורו
חרופה
להתרפאות
בדיקות
וישבו
ך'
דחשוד
גורמים
דהכונה
ומול
במחט
אמיד
ונתרצה
והוצאה
עש"ק
נמחל
מהדברים
הין
שזרק
והלו
##מוכו
שאד
ישתבח
מבינים
ומערות
סק"י
דלת"ק
מתאוה
בעזר
הבכורים
פרסומי
בראיית
##רגש
עזרי
באשפה
באכילתו
בסיום
יעכב
ושמאל
כתבוה
מפטירין
עממין
תיב
מחלקו
##גימה
שמתנה
##כשירו
בישולי
דיהי'
הרהמ"ח
בכתובים
גמי
תמרי
##ישע
##יזה
כשאו
##זוזטרא
##מיתא
##צחים
החרב
בקושי
השבתי
גרונו
הפרוץ
גוזז
ולוק
נתגייר
שולטת
המורשה
שחורה
די"ט
תבואות
שיעבודא
מרגשת
והרע"ב
מכתובתה
אחינו
המקיים
בגטין
האחרונות
דמעו
האבוד
ובאיסור
לבבי
במחשבת
בנתיבות
המועדות
##ראג
דהמו
שביקש
דמשם
בגדולים
##פלגה
שיבר
זכרונות
כברי
השמד
השגיח
ופני
שהנתבע
הנעשים
תשמעו
גדולתו
שיעקב
ביאורים
שס"ג
להגמ'
בקבלנות
להנהו
למזיק
הדברי
בחשש
מקיפין
מספרי
כר"ה
נחסר
הנהגה
תשחט
ברבינו
שנשחט
לחכמי
דתורה
קמ"ה
מספקת
דנוהג
מתרפא
##יונים
המדו
באגם
בחדרי
יפוי
עשייתו
גמ"ד
יחר
והלבוש
ובמר
מתנגד
מיצר
יצאנו
העלאה
##פשתי
חשיד
מצומצם
כעכו"ם
הטהרה
נופלים
מישרים
כדפריך
מללו
##גרר
בישולו
אבותיכם
ומפרשינן
דהרבה
השפל
ופאה
מעליהם
להצריכה
שתאכל
המבשל
ידליק
##ירותי
ששמה
דזיל
שלהבת
להחיותו
שהתחילו
נתו
קניס
תימ
דאתחזק
שבתוס'
ונטלו
##דרת
נאום
##עו"י
בטובה
תקנתם
התקרה
שרגא
אסו
בושט
לסר
שזרע
תשיך
התפסה
מתשמיש
##טייל
דמשעת
משועבדת
פגימה
כברא
הקלקול
שעשוי
העלים
ומערב
מתייחס
וביני
בהבל
מע"ג
##כוונו
שירשו
דאיתקש
ברוקה
בורח
הנחלה
קצות
ולשו
שומרין
נכתבה
לשלשים
מקדושה
רמ"ב
מתיבמת
הה"ג
בנודע
שגזר
שנתקשה
תשמרו
פצי
לפקח
כדדרשינן
ושיש
אדלעיל
טריף
יכלה
אונא
שיכלה
##חותם
ליכתוב
##ח'
##ריעותא
המטמא
הנרא
מצער
מחנ
ותנשא
והנאה
העמידה
דליקה
ביו"כ
דיכולים
סי"א
לקרקעות
##מינם
##יכרא
ועדין
דמלא
שמטה
מחלו
שהקילו
דליתנהו
למחצית
כשהי'
מוצאים
סעדיה
וגזל
דקט
מכוס
תחנונים
שבאותה
באה"ר
ממתין
גינה
ונמש
כשעשה
בקני
##ביאה
##פוג
##כביד
פליטת
דוחקא
ויבאו
לבבם
שאלמלא
מדריגה
##יבום
במצב
שמחמיר
דס'
חילוקי
יפסל
ובמש"כ
במכת
הבוקר
מוחלין
בביתך
דרכיך
רס"י
יוכיחו
וירושלים
הנפילה
בפנ"ע
לגמ'
עוזר
ורד
בימיהם
##קבוע
ונושא
ממזרח
חפשי
חרדל
ודכוותה
ארבה
שבכלל
הפשיעה
נ"ר
וחידוש
ליתנה
אדרבנן
האנושי
לזרעו
##צפה
##פיהן
השלחין
בדגים
בשמירת
ולאה
##מב"ח
בכ"ג
ולהי
זביניה
הפוך
ששר
לגנב
גבורת
הצרפתים
חמדת
כפשטה
ננס
##נבלה
יחש
זכא
##קילה
העיק
נימוח
תבעי
יתירתא
עגולה
בדב
בכנ
##שובתו
המומין
##חישה
שנתתי
הניכר
קרובות
דמוציאין
##ודקין
לובלין
אונ
שכיבה
מבעו"י
וחולק
נאמין
קוברין
מאכלים
נתפרש
משאוי
ערומים
פולטו
וואל
##לוקים
עדי'
עצו
וחכ
יתרת
כונס
קצ"ה
מרבים
דטהור
מעשיה
שממ
חד"א
בביתם
שורף
וכתובים
שהולכים
הילו
סול
##מוט
שהרח
במינן
התרומת
כאידך
דע"פ
עמוקים
משרה
##כפל
והחי
המדובר
ומילתא
ובאשר
שרצונו
שנשחטה
ומצוי
סוגיות
אקב"ו
להיש
שהנו
ומכה
ועמו
גרשתני
קפ"ג
כבע
יונים
##כסוס
כמותן
הימניה
אראה
##נדק
לאסרה
שלטי
משמים
מתיא
##פהו
כהירושלמי
עושהו
הרש"ל
##שאל"ס
דנוה
זילותא
##בם
מהצ
בחילוק
נקטה
דנשאר
##עתייהו
מבטלת
והולכים
המנעל
בהתאם
חורב
נ"נ
תעבד
##חזר
##ושעים
מכירתו
הפא
כמשמעות
וסוכה
פתיחה
מזרעו
##ר"א
##רישא
מתמה
לקיטה
##פוני
מצדד
להקריבו
דהר"מ
בערבות
תופ
והדם
לשומרו
תיפתר
ושארי
להרבה
בכפל
אצטרי
ומועיל
בקוצר
מד"א
דכולן
נתקבל
דבהך
בטענות
להמיתו
פצ
וכרב
המטות
##כירי
שלומד
רוצין
שיורי
אביגדור
מחוייבת
הגויה
נראו
ומצפה
משחשיכה
ישמר
צבורין
האיל
##עתיה
לכוס
דרמב"ם
דק"ש
##וריתא
חמורות
מפרש"י
דטר
והפירות
ונתברר
ממעטין
##ד'
דאיכ'
דהותר
מסככין
כנגדם
והעולם
מלהת
שברור
##לתי
בדמיהן
מיפלגי
##עי"ז
תפילתו
כוש
##ויהו
ונגמר
ממזונות
בגיטא
דרבן
שמעיה
במספרים
שתביא
טחינה
השבים
דחזקיה
עמיתך
תפירה
##ב"ל
דל"ב
וקור
לסי'
ומוכיח
וברשות
##לקוחות
קס"ז
ולכתחלה
אלוק
פטו
##יתורא
זוטר
וספרי
##סהדי
##צותה
"?.
אעלה
מגזירת
אר"א
הערבות
ולכ"ע
להתייחד
ולאחריה
כפרת
שזר
שאוב
לעבירה
החלי
ושורש
לרעהו
וסברת
יאבדו
יקרע
פנימיות
להחזיקו
תשיג
הכלאים
מפטר
לאוקומה
תקעו
תחנם
ט"ע
בכזאת
לנער
מיראה
##ילא
המכילתא
איצטרך
הרבנות
ההגהות
וזוכה
דריסת
מוכיחין
רועי
##ינוף
יועילו
לשבור
הרחב
בעומר
ועונש
הנכתב
טעיתי
בשעה"מ
בעודן
בחתומיו
כרים
לתוספת
ובכך
דסופו
יתפרש
ופחות
חליפי
להקי
ושכל
מפת
כוח
לעונש
איגוד
הגת
מסלקין
דנר
יסודו
ביראה
וסוברים
ד"ט
מבלע
מבנות
מבעי'
הסוגי'
ונאסרה
##פלוג
שתחשך
המקרה
עצת
שקלו
תורים
לפניכם
אעפי"כ
ולבנות
המצריים
לאכלם
בזקן
ש"כ
שהפר
מעידה
שתמות
והשלום
דמדמה
מבטלים
הגונב
שכתבה
וסותם
כסיל
##בירתה
נזקק
מיעקב
##ניהו
##ידוק
ול"א
בעילות
שחציו
##שלין
שרית
הגרשוני
איברי
סכינו
##י"ת
וששאל
מסנהדרין
לתלמוד
שלוק
ונתק
התירוצים
כטו
נתבע
##סיה
מביה
וקיום
להקיש
שזמן
פב"פ
##גף
והכלה
ובברייתא
הפלאה
מידיעתו
קוצים
והגמרא
סהדא
מחלקינן
להודיענו
מכחישין
חבורות
לנותן
צבעו
משחק
הוזכרו
תחתיהם
בעוה"ר
ושדה
שעצם
אחרית
וכשיטת
מסכמת
והוצרכו
משותף
חבירתה
זבוח
מק'
מלבן
במותב
בעיון
מקט
##מש"נ
לפי"מ
ממקור
הלין
מי"ט
אומדן
חמותה
קאת
הקא
דכתיבי
דאיתחזק
יזדמן
זריז
שיל"מ
החמשים
שבלי
הגבה
דלפום
לכבדו
לסי
שיחלוץ
שהמקום
והחילוק
##לומי
##תימתו
ונחת
והאח
נחירה
מייבם
שליכא
הדקל
שחששו
##לנ"ח
##יקף
מדאו'
קדישין
סיכה
בהגוזל
הכנף
דשינה
הכליות
מוכרע
משמתינן
##פיקות
להניחה
פלאג'י
ימעט
במותו
ישחט
דלצורך
בגדו
יעוד
בממזרת
המול
מתרומות
מכ'
כבודך
כתונת
ישעיהו
והלח"מ
האגור
כאשה
בל"ז
הכללי
והשניה
יסודי
##שלומים
דוק'
שהובאו
ולמען
לפיו
הראות
הו"מ
בליקו
ובאותה
בדעתם
גרה
##פוה
להמוכר
ושמעו
##קביל
שנפתח
מדוייק
ושתו
כהקדש
בי"ת
יחתוך
תחלוץ
והלשון
הנקודה
##ימוני
ההנחה
שיפריש
הרצועות
ימחול
כריש
##ולגולת
##יתחא
הנדרים
בתל
יאמינו
האו"ז
זכירה
אסורי
##גט
##ינרי
##קוהו
השוא
בחולי
ודרישה
##בייש
הפורש
לתמיד
ומהרש"ל
אהלים
ורביע
נדחו
##עדשה
תחתיהן
משומר
הרחבה
##כילתין
דזר
כצור
##יתינן
והמשנה
##תוספו'
קוצץ
ערמה
שרגילים
גבריאל
##גולה
שהזהיר
ומסקנא
למותר
בוכה
ויעלה
קדירות
תניי
השכנים
נתערבה
פזי
תכל
##מזו
להיטיב
##זהירו
דבשב
##קדמה
הקרע
בגת
דנתחייב
דתמן
ונתגרשה
ובדרבנן
הריב"א
##ודקים
הגולל
המועדים
קראוהו
מקומם
##טריפה
לאיסורו
בגדיהם
החדשות
לנקבה
צידד
##יוול
והזמן
מילא
דנולד
ראיותיו
שהבינו
ורובא
בחזקתה
דלשמואל
להצד
אחיהם
וקידשה
דטוב
פיאה
כאנשי
ליך
##עוטו
למהדר
לזיו
ולעד
קנ"ט
התבונ
רס"ו
שבגל
כדיני
##מותיו
כשטוען
שישוב
כנפש
דניהו
חקירות
להד"מ
##דיים
##חוות
ששנים
האומרת
הישנה
בביצים
ממלאכתו
בקרובותיה
שפשט
אוכף
במט
##פקירו
שתיהם
יקרת
שיכיר
לשיטתי'
הנקבים
אנסוהו
מחלוקתם
הלוקין
שלכל
ומדר
אתק
מצלי
##פלגו
פרנסת
המוכן
במומין
נסיון
לגרור
נתקלקל
הכהו
##מ"פ
המכסה
לשמע
הצור
דחשיבי
ופה
מ"ס
##זנים
##מרח
בא"ר
חוזק
שובו
פלפל
הסוגיות
מרוצה
##כתיבה
זקיני
בבדק
חילוף
וכשאין
ישפך
שמני
כשיקרא
דט"ס
למחרת
חמיה
שממנה
כוונתי
ובכתובות
צנון
##שנו
אומרה
שתקבל
##פולא
בשלמות
נאכלים
כימי
ברחיצה
##בעון
שרפה
מלוחים
כדיעבד
כנז"ל
ירג
הערעור
##בדיקה
לקלא
וחשש
בנפשות
דסימנים
רעבון
גונב
נבלת
המזלות
ולמדו
##מע"ה
נקבל
המוהל
ופליגא
ירע
וארבעים
##ובדה
ברגלים
יהודאי
ולפמש"כ
אסמ
נעלה
החזון
עונים
דנאסר
דצרי
משייר
חכים
##כויות
בהרהור
יש'
הפעל
דחז"ל
חיצון
תרס
חיבה
קשות
מהפסוק
דתרו
יבשים
הרוגי
שנושא
##כנסים
לזכותו
וטעות
שברח
##מניות
פר"י
ואומרו
רמ"ו
עיקרי
##שהא
כלך
כה"ר
שתחתיו
מאיליו
נעוץ
כובע
##טוף
ברמי
האלפסי
שחוטי
השמיעה
וליחוש
##דריה
##פיסו
הוכחות
בזכרים
קס"ג
שברכת
סחורות
מהז
הת"ק
מאורי
מבוא
השלש
שיסמוכו
הבטחה
שנאת
בח"ג
וניתן
דיחלוקו
דאנא
הא"ז
שכולל
לחור
בחסר
דגוד
ששתי
בצלם
מעליותא
קומתו
תביעות
ושומע
דאסמכתא
תעזוב
הללויה
נסתרה
עונשו
ושוט
מיתר
סברו
לוותר
דחמירא
שדרה
הנכרית
לחתיכה
שמניחין
בירא
בדוד
דקודשא
כגוי
מיאנה
שהזכרתי
אנדרוגינוס
ועתיד
עלמין
בשיקול
בה"ב
##פקוד
כרחם
להוציאן
ובתורת
תתעבר
ויקשה
הרודף
שמשום
וראייתו
ובלתי
קנ"ח
ממאן
ענות
##געות
בחמש
ושיע
ושיהיה
בנפילה
טווי
והשטר
ובהל'
קרפף
פקיד
דכשנ
עבה"ט
כילוי
שהטור
##דו"ד
##טיג
ושלחה
מועדי
ליחייב
לחטוא
##יו"ד
ואחות
במטלטלי
ועפר
דשחט
בתשובתי
=.
בנוב"י
פירשנו
הגבינה
תינשא
וקדושת
מעשות
שמפסיק
בתלמודא
שיעמדו
דטענת
מאישות
##מבדיתא
ששאר
##ירתם
הנחל
בעלמ'
ורמי
דכלהו
ריסוק
הזקנה
בהיס
הנצ
גופם
נגמרו
ניחוח
פנימית
גלימא
הברה
##שאלת
בקטנים
למיס
בפר"ח
שיקראו
משכונו
אפשיטא
להמע
ומקומו
דנילף
לפרקים
הלוך
שזכרתי
ומור"ם
עניו
##דד
##שמה
כובד
במפה
יאש
לזב
##כריכין
לכתובתה
מגומגם
וקדיש
##רימ"ט
##תבייש
בשבו
הגמל
מבול
הוידוי
וקרע
הסיח
דלמפרע
##שקר
דהילכתא
במחיצה
מכב
מנדה
יבינו
דשריא
ושכמ"ה
מוקדשין
והקש
##כבות
פליט
הושענא
כששו
##דותיו
לדבריך
והוכח
ושלישית
ביראת
שציוה
בטו"ז
דכשיש
לביה"ד
ותרצו
##חיא
דאשתו
וביאה
מעריב
ונתא
הסולם
המיוחדים
הקצוב
ומצוות
שבעין
הבדים
בנכסיו
נקלף
ופוק
והשנית
ולקנות
מורנו
##יוהא
ורחבה
סוגיית
וירושלמי
צאו
והות
משכר
לפש
בג"ש
יענו
וחיות
דנתי
ידעי'
האויבים
לפרעו
עשאוהו
ואבן
וכות
שהורו
דהצ
והמחמיר
ומאידך
קע"ג
##יהיב
שמשל
מסי'
שהנשמה
בממו
לחיה
כאותה
מק"ש
פסלינן
וכמובן
במשנ"ב
##נערה
ובגיטין
דאינשי
שמול
##ריו"ח
##ושייתם
נטהר
צלם
והכין
קצ"ו
סמיכת
וכבד
הטיט
כשאמרו
לשמונה
שהוסיפו
מחש
מכלום
דגזירת
לצוד
ויתחייב
בידיעת
זבו
ילוה
סרה
##נורה
שהקריב
חנק
תלוי'
המקראות
בנפיחה
אדאורייתא
דו"ה
לידת
שהכלי
בזכותו
חבריו
ינח
##ספים
ומעל
מגבה
יבצר
הצפון
##דליקה
מיוחס
יהיבנא
החטאים
מפאנו
צותה
##זולי
בחיל
האבני
ולבאר
דבע"כ
עסקא
כאומרו
וטריפות
החשד
במנעל
!?
פנ"י
ועלו
אפיקו
העבודות
בנשואה
הכשירו
עיק
המית
לפשר
כהס
כגנב
קצב
ביבם
חיננא
דאידך
מתחרט
ממרים
הקרובה
שנאנס
השביח
##מישית
ויעו"ש
סנפיר
ומוסר
דמעולם
דיבמה
שנעקר
מובהקין
באזני
ומסת
רוכל
מנעלים
לקחתה
לכרך
תזכה
וימי
לרכוב
קאמרת
ובסמ"ע
ובתנאי
דחייה
דהמקשה
שיטמא
הכותים
האמצעית
צובע
והיין
שאמו
במלה
דמהר"ם
דטעות
##רף
שהרויח
במקדיש
ולאחריו
דבמש
מתירא
דנזירות
ב"
גיטו
##כפרו
שאיכא
האופנים
מע"ל
ושניה
נקודות
הייתה
וכדלקמן
##גגות
ושבט
אומנותו
כפשטן
הקדישה
##גרם
ריבוא
בהספד
להזכירו
רז
והבל
לרפאות
ב"ג
בשכבר
ישעי'
דגמרינן
סוכתו
##וראות
יקריבו
משוחרר
קפ"ה
חומרות
כמתנת
דלוק
לטהרות
ממיני
טעימה
פליגו
לעזוב
לשרת
נכרת
והגב
דהוקשה
ולצורך
שנמכר
דמזונות
רקב
מקר
דנ"ל
המוריש
והמצות
##שוהו
בהיקש
פי"ח
דיינין
ובר"ן
ומחלוקת
נחוץ
##תיירו
וגמרו
נקיות
הישועה
בתה"ד
רופאים
יריעה
כרחיך
שהתק
נסע
בכיסוי
ויגבה
שנסתלק
דקרן
לגברא
הרבינו
ורכב
הנהנה
טיפה
##ופי'
שעמדה
##צוח
חלבים
לל"ת
והמותר
והתפלל
הברירה
אימורין
באתה
דר"ז
ותלוי
שארצה
מדרגה
מטבעות
כורת
כפסק
דמי'
לנדותו
עשייתן
רכוב
המתה
אוכלו
ומעו
בהלל
אחדש
שמעידין
כבודי
הגרלה
מרבינו
ויקנה
חיד"א
עוה"ז
כהת
שפוסל
לכונסה
בדוכתא
בשולחן
ומזוזה
ולהו
##כסדרה
והחזירה
להינשא
##ודרת
וקרקע
וחביריו
לרבנו
##טיס
גרופה
ליומא
חית
##וספה
לשניה
דחשש
אזוב
המזכה
למשכיר
ויכולה
דיעקב
##דקים
##יר"י
##פרן
נאנסה
דמיקל
וראינו
היראים
זדון
טורי
וכתובה
והשא
ועוג
מסוגיין
אומדין
ארוב
ול"ח
בהנ"ל
ודורש
##ועס
וכתבנו
נדיב
ומתנות
פתחון
דקאמ'
בודקת
ובפסחים
קשורים
##בתא
שהתחייב
במעלות
דמינ
בתפילת
דומי'
שיתע
יוני
ויזכה
אהבתו
והעם
במערבא
האישות
חבוש
ממיתין
##בירים
פרהסיא
וששאלתם
מאמינו
##תה"ד
מסויי
ולהח
שזנתה
מיאוס
שקדמה
נשיאות
קדרות
כבראשונה
##סך
נאבדו
נפיש
המקילין
בוקעת
דפשטא
קיט
##יכוהו
שנדע
##יעד
התקין
בפלוגתת
דשלח
ובהאי
יגיעו
תתק
זקוקים
לזור
נתה
##מקו
##רימו
שהב"ד
##יחדה
חובי
גרשה
תרד
##קבלת
##מיתות
קס"ח
בנתיב
הינ
להתו
האמין
בעדם
ונוסף
חזרתי
חכמי'
והחזירו
לירושלם
לדוגמא
לנדות
בטמאה
בטפח
##מחוק
ובערב
תלויין
המ"ע
##בדק
מחמתה
שעלתה
דטענינן
נזונת
לע"ל
נתקל
דמיעוט
ביממא
לצער
הלויים
באביו
מענה
מוז
כשואל
הוזמו
ויכל
##עתיך
לשבוע
תהיינה
כראי
וכסות
ומדין
הכחות
בבעלה
ובהר
בחורים
עניית
דכוונתם
שהצבור
במזו
אות'
בכינוי
עבודתם
##בקשים
נפסקה
זבל
##רייתא
הממונים
ומנחת
לחמור
בגונא
דעים
חציף
שלפניה
תזריע
דאבות
הנותר
שחרב
דעתייהו
גוזרין
יסכים
ריב"ז
##פידו
ודל
לקיחת
שעירה
משמעו
יחפוץ
כול'
קפ"ד
קליפת
שעומדת
איע
בחרש
ברותחין
לשכינה
הקץ
לתרווייהו
והאיכא
לאלפים
נפלאתי
תינוקת
בנשיא
למהר"ם
יקנו
ובההיא
במוצ"ש
חמשין
ולמימר
##בל"ע
דאיזה
הנוטע
מנהגי
הפקירו
קורעין
רט
במיוחד
##סרם
יחתה
##קשין
ואיירי
וכפל
##יבוק
המתו
שבטלו
דשרינן
ותשובה
שי"ב
ושבועות
פרטית
פורס
אבוהב
רמזו
בגיזה
זנתה
##אלים
##פעה
ונשיא
דלפירוש
כאין
חובתם
שפיכות
פנימה
ויקהל
תט
להזות
##פרדו
כשיוצא
מלחו
עכבר
ההנהגה
שנישאת
שלוחה
ליחה
הכרובים
למור
האונאה
בדרכים
צניעות
והבר
##מודה
ובהו
לדעה
וחז"ל
אמיתי
זבול
ונפסק
ובסנהדרין
שהחשיך
מפקחין
הוקף
לדוכתה
כקש"ת
להה
##ודעה
הארבעה
בשי'
ישיר
##יע'
שיירות
##פתתה
ומובן
ברוטב
לטלטלה
שטב
רבע
איצט
הכשרות
מדמין
מדיוקא
בתרווייהו
אלמנת
בכסא
מכפי
דחוקה
נזקו
מגיעים
קהת
האריז"ל
לטר
מטל
המיו
התור'
לבושי
הוריות
ומהדרינן
משפיע
דהגמרא
וידי
בהנהו
שמקיים
בנגע
דמהניא
רי"ב
דבסימן
לריח
##ורון
להליץ
מאחת
בט"ע
דמוכרח
אר'
העתידה
שבוע'
הטהרות
למפשט
##ייסה
הלחי
הווי
שיפלו
כנטול
נקראין
להעמיס
כמשנה
הנחתי
יסורים
##ינש
והבין
במני
משגת
הנעלם
מעיניו
דברנו
בנערה
בתוכן
##לשל
מהרו
הדרו
ושעה
דקם
דספר
ורמינהו
וראשו
מלקיות
לגאולה
##נקא
והשיא
הדבק
מחלת
ונשב
הסרת
מסול
ופקדון
להסתפר
יניחו
לאפקו
בעתו
אבידת
מלכנו
הערכאות
יודעי
מעורבים
ג"ט
ביצא
מידות
והרדב"ז
והש"ס
בנד"ז
הסתר
##רינהו
הכנס
הגדת
##כותי
כמל
כשנכנס
מאוחרת
רבך
לאומן
וכדפירש
שירש
##רצן
שתבעו
סרסור
##סטרא
##ודרים
התקופה
וצער
עשויים
והנפש
תלויות
כקרבן
הפוכה
##מעאל
הקיר
שקי
מעליה
##מצרים
ונאכל
טועין
דנית
ואתן
אוכלא
##יכוב
לבצוע
##ינייהו
דנבילה
אזכרות
וכשלא
ומשהו
השינה
ועברו
מידע
##פולש
להחרים
תגע
##מוי
##רבאי
##ושרים
ההב
דפ"ב
כותבת
קב"ה
רצ"א
הטורי
לאורויי
שהפירות
ולבן
##יחות
שחשבו
הדרשה
וה"ז
הרישא
לקבר
הזהר
פשיטות
ארז
ומדכתב
בישרא
הצרעת
בבע"ח
יכירו
##ראנ"ח
מהשם
לבינו
##פיך
מסרב
דשרו
דתן
צרו
לתרוייהו
ויצו
מגבינן
רשד"ם
מיניהו
דהרמ"א
הפוסל
בורו
מהקהל
הגדל
לגבה
ובאמצע
כתף
נוהגות
להשתעבד
משגחינן
יזרע
##ג"ה
עבירת
שיתיר
וטבח
קנית
התפירה
החיבור
ושעורים
בנחלת
ואייתי
מיתורא
המהפך
דהמח
לתקנה
לפוטרה
ויתי
תשתה
בהדיוט
שמשב
בפנקס
כשרא
קריבין
ההוכחה
הימנית
יודי
יבדיל
מפסק
המפרקת
איין
מוך
שיבנה
דנהרא
עוזיאל
שעשיתי
שנצט
הבאי
ראיתם
לגמגם
נפיחה
##סקופה
שנכתבו
שכד
הגברא
ראשם
חומת
ניסים
שהלשון
כשחזר
ובהשגות
תאר
דרס
שוע
כשורה
שטבעו
בחררה
##סול
ומיתה
ושכיר
##סהיד
נהור
ומתירין
חכז"ל
משבעה
לזלזל
מיתומים
##מטו
כהמ
הגדולות
איבעית
משלחין
טהרתו
להלוקח
לע"ה
מאברהם
הסבלונות
וכתבתם
כעיר
19
וכרת
##מאנת
דבישראל
וחק
שניא
שבאמצע
עייש"ה
מסתכל
לעתים
##נשאת
לבהכ"נ
מובטח
בהקדמה
##גרה
לחשב
החוש
עכצ"ל
לתפלת
כתיבתו
שראוהו
דלהבא
##ורשי
וכזית
##נום
ומדבר
דמשל
בריתא
שרואין
בפי"ג
עפ"ד
שמצוי
פ"מ
רנ"ב
שפרש
משליח
הגידו
פסין
חלבה
נגעה
מחו"ל
שהקדימו
ישאנה
תירוצם
ועז"א
למצה
הג"פ
שיטתם
השנו
מכשירים
הפאה
להתקרב
המוסיף
ששילם
דכשהוא
לאפרושי
זוק
לארבעה
דבענין
מצותן
בס"א
כפוף
דהעזה
ואראה
שהראב"ד
למחזיק
דלפי'
שישים
נטעה
הישראלי
ממתינין
אדה"ר
מחמיצין
ק"נ
להרו
שאחז"ל
דמחו
דבהו
יעיי"ש
דולא
המומחה
דיס
במהר"ם
הראויים
שנשברה
דמוכחא
שדיבר
אדעתין
אכסדרה
וכסתות
##עלן
בשעתו
##דימת
חונן
פרסום
חלש
שפלוני
שיחשב
ומדבריו
דצלי
ינקה
שאיל
ושטרות
לאומות
כס'
חושבים
שפלפל
ענוי
לסלוקי
כדאמרו
שנתבשלו
בעניותי
דעבידי
##פולת
##יבעי'
מקי
ומהדר
מעלים
וכדתניא
מחוברת
דבאותו
מושיבין
נהרדעי
מחלוקות
שבישל
תשקצו
ספור
שבולת
למבין
כיפה
מחתך
לשפוט
המהרש"ם
שנגעו
מעורבת
טענותיהם
חבלים
נל
##פעת
עלוי
בהשבה
שועל
כשס
מסכתא
שיזכיר
וז"א
מדאמרי'
העליתי
וטפי
נושאי
בהט
דבתוך
דלולב
##ופת
להסקה
תחיית
שאברהם
ולמע
באמור
הלמ"ד
הסודר
ומהרש"א
בתרגום
ימיך
משחיטתו
בעצרת
מר"ח
ביצחק
לבניך
בהיזק
בשוא"ת
המדול
השותה
לקרובים
דמשיכה
לאשו
דאא
דאותן
בחזר
שקנאו
ולהאי
ובהך
להשחית
השלמות
למשכנו
הירש
דמצורע
לשייר
##פולו
שאבדה
בהצ
אפל
בבכורה
דסמוך
מזונותיו
דנאנסו
והמוציא
##סס
והור
##מתני'
הסמיכה
##טאות
כמשה
וביו"ד
הכס"מ
המפריש
מדורה
מתפילין
ולבנה
לשיטתייהו
##נזו
רבעים
לקנח
מאמרו
בהיותה
הוקבע
ווינ
יכשלו
ערוב
דמילי
##שבין
שקולים
מזהיר
הרחוקים
שלדברי
והוליד
הידועים
וליקח
דמכ
שקיעה
הורגין
והללו
שנשרו
דטרפה
נידה
שהוי
ישנן
דמטא
##בירי
מקילים
לקצת
בגיהנם
כההוא
קדמונים
בזמה"ז
ולהבין
ללקוט
פירושם
##וגמת
אדומים
הרוחני
היחידים
כנה
פיק
##עשע
מהנהו
האפשר
ועתוס'
מחמיץ
בתרוייהו
##בירם
##נוח
העושר
ודריש
פסלו
כשמכר
מכשר
פי"ז
צריכינן
ממוש
בקדושתו
למשמש
חבירך
והפקר
כדמשני
וקבלת
חילל
שהוזמו
מראשון
דלתתא
##עוס
##קומץ
הדרה
כדמי
המועט
והבנות
זמניה
הגרי"ש
לירושלמי
לסתם
והוקשה
ודנין
מבכור
מוספין
שאוכלים
##קדושת
בתוד"ה
נתחל
ככתובה
י"נ
מהמש
הריעותא
כדד
##דונות
יתרצה
ולדבר
הפריעה
תגלה
אומנתו
ומנח
הקו'
קמ"ד
וכפי'
החבורה
קבלתו
גנות
יבע
צינ
בתחל
ונבלע
דאיפשר
חזקים
##לחמת
הלווה
שמקודם
זמר
ריו
ועמדה
ברקיע
זומא
והשכל
ובמנחות
הקופה
להניחן
נוקפו
בש"ק
בחשבו
וחפץ
ירדה
צלפחד
במנורה
ליוצא
שנטלה
ונפסל
לגאון
דעור
יפדה
שנשבר
מתוקנים
דבתחילה
מצלת
דקיום
נרצע
התבן
סתומות
##גמו
ולדון
למשא
הגבר
ברגלו
שחזק
שנחלק
בהעראה
דבסתם
וש"פ
מסביב
הנהרג
ולבניו
שידענו
ומביאין
מבוטל
##זבו
בממונא
שחפץ
לתלוש
נו"נ
קנ"ב
בבהמ"ז
נתייאש
דשליחות
שובה
##ודקת
הכינו
חומשי
כגרוגרת
מרומז
ואוכלת
דעבדינן
##ערובת
מברא
ורחמנא
בשלשים
במוקדשין
לחוות
##מנותו
דבמתני'
סובין
##שותפים
דקבל
תו"מ
כשרואה
נעול
נסמך
קפ"ב
דאהני
המבקש
שיוצאין
כששניהם
והבדלה
ומדאורייתא
לגדר
חופר
כתלמיד
המעביר
דקדוש
מכריזין
ונסתרה
##כסוסטוס
ישתו
##מדות
למקומן
##שועות
מהשו
האף
השמא
לע"א
בעידן
מאוכל
כדמעיקרא
ליבעי
דחרש
טבלא
דפסולה
אבריו
שהפקידו
דחוב
כפתור
##יכל
קימה
טבלו
המקילים
שימצאו
לנה
סקל
שדרש
והפסד
בשיל
וביטל
שבידינו
תתבטל
מתנא
דבריש
דחיקא
הטריפות
לידידי
עמק
למצותו
מישאל
ואיתי
##בי"ד
לאוכלה
גבייהו
דאיפ
ולהקל
שדברו
לקדשים
סוגייא
עורו
##ענים
##ישתא
ובכאן
הגירות
בט"ב
שדברים
נתקיימו
ק"ע
באחרת
לחזרה
דכות
שיורה
יתק
ואיידי
שהאמינו
##נבוס
האורחים
בעונות
זכיות
עסוקין
אשלם
##ט"ץ
ובדר
שנטבע
מדתני
וראשון
זיז
##ריק"ו
דשייר
מדקדקים
רחמיו
שאיש
שמקום
לחרש
##מותם
שחתך
לאפטורי
ושונה
ווסת
זיקא
והקהל
אתרע
ועוסק
ידון
שישחוט
בנודר
כשהס
##שוח
דהמוציא
ומפר
לחכמה
ממות
בבואו
ליסוד
בקירוב
גררא
ובסמוך
ביבום
שהשכיר
מעכבי
להרגיש
דהנו
##וק'
בבנים
רשעתו
להטפיח
לשורפו
וזורקין
דחידוש
למיק
חימום
שיול
יסד
השביע
ויבן
מסורה
נחוניא
מהיכנו
כשטר
שישאל
ששתק
ורוחב
ואירע
##ובץ
לאח"מ
שיחרור
וכמאן
הדמאי
בסימני
שי"א
לרדוף
בניגוד
פירושי
התובעת
קלקל
תדבר
ואשמעינן
בש"א
דביא
לי"ב
עבדין
באחרית
והכלל
דהראשון
יחו
יבדוק
##צתא
אבמה"ח
##וליס
ועלי
ורבנו
יצליח
שהתרו
שהשמש
דנוכל
דשלשה
מקילינן
פותחת
האמיתית
פולין
שהגם
##יבוס
בכתף
הפעוטות
##פשרי
בריח
שיעורי
דמועד
ומכ"מ
מאליהם
השמיע
חוס
מחצות
דקושיא
מסה
יאסרו
כחלק
המצב
זובח
ירגיש
צעיר
מרחק
הזנות
והאחר
לאחריהם
קצ"ב
זב"ז
דהשני
עתידים
מושלי
לשתותו
ספוקי
רמאות
והקטיר
משרי
וראיתם
שטרח
נגיחה
ועיינתי
##תומין
ובפי
מתפר
וגופו
ופרו
##ונך
##מלין
ופרשת
נסתם
##מויי
בכ"ר
דדוד
קמ"ז
טבילות
מחלקת
הטהורים
האצבעות
וכדמפרש
לגמרא
הספד
מרגל
הזכרון
ממשקה
ובספק
הרמז"ל
##מקה
##-.
ובהם
השלימה
שמינית
הלכ'
נהורא
אדנ"י
דבלי
רמא
המטר
אופין
מאכולת
לקנס
והשמיט
חפצתי
צוה"פ
##יטומתא
ושעורה
והמעות
מהעיר
שיגדיל
ורגיל
ולעמוד
במרה
יכשל
לפרה
דמנה
##יענו
בתירוצם
לקנוס
מליאה
אדינא
שמוש
יאכיל
קע"ב
ורשאי
מרבוותא
בוסר
מישת
ובונה
מחולין
הראשית
אזכיר
מנשיא
תשס
חוליות
בפירושא
אשירי
ושביעית
קפ"ט
ובינה
וע"ק
לחוף
כרמב"ם
המתין
החמשה
לדף
מפלת
הקדמת
בשבילה
בתרנגולת
הגה"ה
המקצת
שהולכין
מ"כ
עפרא
תיהוי
##די'
##שומו
תקיף
אסף
שהתנאי
ופסוק
##משמעות
שכהן
אפוא
מתטמא
דרבותא
מכלים
נוטלו
שס"ה
##מלאו
קרבין
יול
##למו
להעד
להשליח
להשאיר
דאבל
דהעד
מהר"ל
דעליה
זכרנו
לאמתו
תחנון
תרצו
הנוגעים
פטירת
מתוספתא
##יקתה
לשכב
שהואיל
כדק
גביהן
שלוקה
כפור
ויעוי'
דקדיש
קפילא
בעובד
לשבר
וחב
בנרות
קדושיה
דשאלה
דטעו
היזקא
##ריסותיכם
הינו
מתבשל
המלכה
שלט
##יקם
מלחם
##קיפה
כשהו
מוקמי
השלמת
חפציו
בכותח
##סקה
דבבית
בוטון
בגורל
ידברו
קרייה
שבגוף
צודק
דמחובר
ראם
מקלל
בידידות
דאיתנהו
כעפר
קורבא
וצווח
##סקים
ולישראל
הרכבה
הקריבה
במשכנתא
שסותר
ובלב
##פרוש
טפה
##קעין
שכרך
סברתם
מטבל
##מישים
להשביעה
ההיפך
צדה
##דיות
הבינותי
העובדי
בב"ר
עורף
הכריעו
בשעבוד
##ילואים
כיין
היך
לזייף
והנותר
מסייעא
צלע
בחורב
##משמין
דשכר
עניבה
מיבום
תקופה
##נחו
מהמו
שבשוק
בדח
ממשל
קאים
גיטיך
ללחם
##וביא
דמחזיק
מקרן
לשוחט
והמקום
רס"ג
יתבי
שטי
וכפירוש
ולבא
מוהריב"ל
---------
זנב
##רשי
התורת
מחסרא
תעבודו
דלדבריו
והראשונים
ונכרתה
והבת
במדי
##דייף
אלמנתו
בכניסתו
כהפקר
שחיל
##כחשת
שקרה
כבול
הטורח
רע"ק
אבהע"ז
בשתייה
לקותא
לתנור
דנפשי'
נחשים
יקרבו
לשאוב
ונותנו
כעולא
והגל
מעונש
מתרו
מגט
ערבא
לבעליהן
תריסר
פט"ז
הר"ת
זכותא
נצטוה
בשאלתו
תנה
אחוי
בהבדלה
דרסה
בכללות
היוצאת
לאיניש
גסות
דאנוס
ולבתר
בנחל
ופחד
דתקינו
עיניכם
##ד"ד
##רייא
לוסת
מעץ
##תאב
בבטן
דפעמים
נגבית
התועלת
נפשותיכם
רביעה
דמצר
שמסתפק
שע"כ
שישתה
עיסת
פשיט'
לראותו
דבתרומה
ר"ו
##מעלה
##רובו
ומרי
בארה
בחצוצרות
לגריעותא
מכובד
מכחשת
##קריאת
נזקא
אחשביה
##קבו
##ידון
בחושן
מופק
##עבדים
כתקנת
ערוגה
בהפסק
ועשרה
הבני
זומם
נוטע
כשהח
והתראה
שנגנב
הנשיאים
סיב
ססי'
שזרעו
לבז
ושעבוד
דעתין
תשב"ץ
שבשב
הנפק
כתלוש
יומתו
זכויות
שיסכימו
בגלגל
חטאה
##צויי
לאוה
כיפור
לחרישה
לתרומת
הטילו
##לבושים
תפסיד
וכצ"ל
שלמא
וביחוד
השח
ונעל
##סרך
##פו"ל
ומשמעות
ברחמים
מדוחק
במוד
העשיה
בסיון
ונכנסו
יהני
מפקד
עתידה
האלהי
בדאית
תבערו
אויביך
"!
עיל
ולמש
איטר
למנותו
חשק
שבגופו
ומניחין
מדריגות
##רכה
##ניעו
דאביו
ולברר
בגבול
יענש
שפכה
תפתח
במוח
ונהרג
מלפניך
לאברים
שהכריע
העורות
ברצונה
מפולת
בברכתו
שרובה
מוגבל
בלשונות
מזבין
דידעי
שמוכיח
##לעזר
ארצו
וחוזרת
תלוים
מאתנו
אחראין
אפוטרופא
##סמכתא
דהל'
דבט
לחג
הדרינן
בנינו
לנטילת
בקיץ
מהריק"ש
דמטלטלי
דבוקים
בדה
בקרובים
ותורת
וייל
היוצר
שמע'
ביתומים
ששומע
מהראנ"ח
לענינינו
לנענע
##תיבם
ויתיב
שסבור
והגוי
נצוק
דמקצת
השתדלות
ערוג
למצא
חללו
קאמרה
באייר
ירחי
ימלוך
בתביעת
ותאכל
אמיתית
בבעיא
החסדים
ליחלק
ללוים
ההליכה
דוע
ד"ר
זוהמא
טח
להלל
שבשל
##מעך
בק'
ותורתו
לנקות
מעשהו
מודין
לידי'
נבואתו
להעמידו
לטלטלן
שעירב
ושמחתי
##מקים
משמיע
הבושה
##בדא
הורד
במחיצות
מקצתם
תקריבו
המגביה
לשלמה
יצטרף
מטעמיה
כדכתבו
##ועין
ויצר
שקנאה
דהש"ך
שזורי
ונוהגין
אלשקר
טעמי'
מיעוטו
ההשגה
וזרעו
תמרה
##כאי
ישבר
לנכות
הצינור
באומרם
אריכתא
רל"ה
בלישניה
כנת
דאסיקנא
המצא
וענו
להוריש
##שיבו
יאסור
כותבי
נטיעות
לאזניו
##ולץ
מהיקשא
בעגל
מע'
לשכת
ובמצות
שמביאין
המשתמרת
לברית
מנסיא
אפרע
ולשאר
דב"נ
שמכאן
מחזר
חגב
כרות
ישרפו
כשחוזר
אוציא
ישראלי
ממכרו
שפחתו
ולערב
לאח"ז
צערו
בתנאים
מימינו
בעה"ט
תפוח
מדהו
##ועא
שיגע
##בעי'
##שתהה
##נדריא
להשאר
מצרית
מאני
##עולא
שמוטל
יגוש
איקבע
"?
בזרע
גיע
זימניה
##בנת
דהמשנה
ומכירה
בתשלומי
במשמרת
ימסור
וביצה
ורי"ו
##ריק"ש
ירית
##ילינן
כלתו
הרפ
ושקל
הצרי
המערבי
תבשל
דמדקאמר
הדבקים
דהשוחט
ליסטים
##כשיטין
למעליותא
כפשטיה
פשה
ולהם
##פסדו
##כותבת
חקי
שמעל
בידיעה
משמעותו
וגבינה
חרבן
לא"א
מחמשה
בבאה
תריץ
לאחזוקי
מהכל
אבלו
דחופה
שתכנס
אממונא
##יתוח
דמהיכא
ראיי'
להתבטל
בהה
הכפרים
החרס
הריגה
קושר
יאכלנו
לפרנסה
המדורה
ג"ח
דצו
ייר
להבה
והדו
משמא
וציר
באומות
סימניו
ויוצאים
לטמאות
שנדחה
הג"א
דחיק
טובו
בשעתא
לזריקה
ובמנין
##פידא
ולשמואל
ופלתי
הארה
##כתין
נפסלת
סכנתא
בעינינו
בעשור
בחלוק
לקריאה
בגורן
שישנה
דנהר
##נינות
של"א
ובדו
ונלענ"ד
בנביאים
שחזרה
דת"ר
מהאחרונים
להסירו
התלויות
קטלנית
מירתת
שבירושלים
לכלוך
וגזלן
יושביה
השאלתות
במרח
מתעברת
בלועה
חשודים
בשמאלו
##ר"מ
##ובדין
שנשר
ולדרוש
דז"ל
צדקיהו
ישתדל
דללישנא
דדה
והיית
##דירים
ליהודים
לגדולים
כהיום
מזומנים
וברוב
שהמב
לד"ה
##סולא
וקרינן
הי"ז
קדושתה
שהגיה
למוכרם
לדרשה
שהו'
ולבדוק
לדרבנן
שתפסה
הטי
רענן
קמ"ח
ד"נ
##דחת
לאיג
ואסיק
וכתי'
##תבש
ולבית
##נהגת
ירחק
לקדושי
תובב"א
מקדישין
##ואיו
לשינוי
שיזכור
והיש
דאיבעי
דבכולהו
מתת
בגרות
##קטנים
##יקולא
כעדים
שיכנסו
שיזכו
נטרו
והב"ד
בחבור
מבוק
דחמור
שנתגיירה
דמחוייב
רופ
והכו
משמי'
מחליצה
##פקעה
דשדה
ויגש
ויהושע
פתחה
בראה
ליטהר
דהמרדכי
הקולות
ההתחייבות
שזמנו
בבה"כ
שבכלי
השרשים
חורבא
מבליע
##פשייהו
ימא
להחל
דהמעשה
המדר
ישמרו
באמרי
נקנות
יתחייבו
וממנה
ומזונות
הקרי
ושכירות
שעיניו
שיעורים
זבנה
העדאת
ונקראת
בשמיעה
להצדיק
##רוני
דביו"ט
בפנ"י
וספיקא
פרוס
והגמ'
קידושיו
מפרשת
קלוטה
ע"ל
דאשמעינן
הר"נ
##מתנה
הזיד
קטורה
ארמית
נשארת
ארוכות
שהר"ן
עליהו
אלאו
רא"ם
##כותה
ולהודיע
מקראות
רוחץ
למרחץ
בחת"ס
צפורן
##יתור
ושדי
בנבילה
צריכי'
הטחול
תעבוד
סבורה
זוהר
כאיסור
דאמימר
##יהוץ
שרשי
במום
והמלך
דחזיא
לעושה
דמכש
##פקל
וגירשה
שבתותי
לנטות
שנתפתתה
באומדנא
ומתע
פירותיה
המדברים
שמצאנו
ינוקא
כעל
ששבתו
השנוי
מעבירה
התשו'
##זכרה
חולבת
גליל
מדעתם
תשאל
וביתו
דמינה
כהג
שקנתה
אמתי
פירוד
דמודו
נזרו
שבסי'
לצורכו
ורש"ל
ותוך
לבריה
צוארו
שהכה
הרשב"ש
לחוק
מק"ט
דרור
במעותיו
דמנח
ראיתו
מוכה
מקנח
##תובעים
והאש
דהשטר
גילח
תרנגולים
המצו
בשגגת
באגודה
בדלת
שמלך
בי"ב
מזידין
ארע
והרוצה
##תונת
בתראה
החתונה
מוזהרים
בליעה
לאיצטרופי
מהרי"ח
הברור
ההתראה
מינן
פ"פ
קרבה
תבר
לארוס
בה"כ
השקלים
מצטע
דגמיר
קריעת
ולדעתו
פריעה
הגר"י
ניכרין
ובפ"ב
חותמות
שבישלו
לעיוני
וש"ת
בבק
לסעודת
ולהוסיף
##ינוקות
ישלמו
##ערובות
וכדרך
דהמה
בהמש
שמבאר
הד"א
לשיר
מפיה
הסי
וזיל
תחוב
האוזן
שהקטן
להשתקע
ואוכלים
בביהכנ"ס
בו'
עיכול
שבתחילה
הע"ז
כדבעינן
דרה
ותתן
ורג
##ירושל'
מהראשון
הפעולות
להשא
לעשיר
שכשא
##גדות
דכללא
ויובל
הגומא
נתחייבתי
לבהמתו
רעותא
##רנא
הגמר
ליפסל
כשיאמר
יתד
לנפילה
דמע"ש
דלדינא
צלעות
באיכא
דח"ש
כשהביא
קביע
השל"ה
וידחה
מיושבים
כמוהר"ר
פינ
##נבי
וה"א
שהרוב
דחיית
מר"ה
נשאלין
##תחוו
מגדף
הסרסור
יאה
סלת
ומבושל
בסנדל
ודינא
##שיבא
##יעו"ש
תס"ז
צעקה
יכה
צואת
##טבא
אוף
שביל
שכ"ז
מעבודת
כשדים
כהו
שיגדלו
המקבלים
שיטעון
רעו
##טיו
לאיח
בשחט
##חוטי
הפשר
קטינא
מזנה
##נוסח
מרחיקין
קחו
והתא
במז"ל
הע"ה
מתנו
ונמכר
הסליחה
קיסם
שיכניס
לאפקועי
רמ"ד
שתובע
שלגבי
ומחויב
שבכ
יהוש
בליכא
תלבש
להרח
השימוש
##פשיטות
##וייר
הדלי
ולהחזיר
דנקטו
ולדבריהם
וכפירש"י
בועז
לקלקלה
כגזלן
##גרשו
חתמנו
שאכלנו
מושבותיכם
ינהגו
והתי
להק'
מט'
דקא'
ומקריב
אומדנות
##זז
עדשים
הרי"ז
מייאש
מפראג
##בתיה
הפגם
דפרו
גוג
אעיקרא
מהדין
##סירי
קראתי
והעמידו
זוה
##טנו
להשם
לכ"א
לקיומי
דשחיטת
מגעו
תקריב
המזמור
לקוחה
האורז
ימכרנו
גנבי
כיתי
קינוח
דאיקרי
שטבלה
כהלכתן
לאוכליו
תיע
##קצת
משמאל
דמכשירין
הרחק
התשובות
קללת
דחשיד
עקום
צף
##סו'
בעיל
מתגבר
הקים
##שובך
חולדה
שדוד
אבדק"ק
זכים
מהכ
שמכיר
העיקרי
מי"ב
וחסרון
דישה
כתיק
שטת
במחצית
ויחר
השופטים
ג"ה
ולישב
שנתארסה
כשפים
שגלו
##תחילתו
רפ"ג
השגחה
לבלי
##דנא
ולדה
ולישא
מחוב
הק"ק
כאשת
עונת
ופור
וכמו"ש
בעתיד
ומקצתו
ולתרץ
נמשכין
דאכלה
כללית
להוצאת
ולוים
ובפוסקים
היותה
אסרוהו
טבעות
אכולה
דדומה
לוב
המשוד
ובחר
ותלה
##כחש
המדינות
ואונס
לבייש
הנסיון
שהובאה
חינם
לילי
##מחת
##עקר
בהוריות
עוונות
שותים
וללישנא
ח"ז
שצי
##מי"י
##מיטה
החבר
ומוספין
ונתערב
שהעמידו
אמותיו
הגלגלים
וליק
הענפים
מכ"ד
לאומרם
שיחי'
ומחלו
קניה
משמן
לעוש
לסברתו
חיסר
שבויה
דהרואה
בקומה
##טירו
דבורא
בד"נ
##מתיה
חייהם
לנוכח
לדעתה
וככל
דמנין
דתפלה
יחלק
הפרדס
זהירות
דגרי
##מצאו
כנלפענ"ד
להתרות
באוצר
שכבשו
אשאר
##נקן
##להלן
##זונו
שגגתו
ומתק
משוחר
במו"ק
ונתרפא
מתענים
בפי"ד
שנבראו
ש"ל
##נ"ו
במכיר
העונות
מאילו
אשתבע
תאסר
דורשים
התאו
בתלתא
מו"ק
שיורא
קדושיו
איבוד
דקדשי
התבואות
במגן
מכתבך
##ק"ל
הי"ח
דפלוגתייהו
שותת
##גלויי
##ערותא
בקטנותו
באצבעו
דבקדשים
התורם
הווה
היסורין
ופטר
לקבלם
##ולחני
תפלתי
ואסורין
תורתינו
לעניננו
קז
שהענין
אופה
##עתך
ולהרב
מכיסו
וביומא
בתקופת
להפקיד
##וסו
מענינו
חלפתא
וסותר
ואימתי
ידיעות
רואהו
משפטו
ואנה
המזל
בשדות
הליכות
הוינן
וחכמי
חייבוהו
חיבר
הצלי
וראשי
שנאכל
במועדו
##דיוטות
##רא'
והקדיש
ומתני
מא'
לז"א
אפומא
הוספת
למקצת
נכללו
ברבו
טבריה
ייבם
לאחי
קדמון
נפלאים
והג'
ימלט
החושך
ממזוזה
והאל
ובאור
דמהיכי
גדיש
שהעביר
ולר"ש
רסי'
צביעה
תשלם
בתחלתו
לק'
יתכוין
##עבדה
והמפרשים
הכפורת
לדיון
##ליפת
שעובד
דעיקרו
לסעוד
כבוי
השלשים
ונוכל
הנאסר
הית'
10
קג
לאפלוגי
וכלאים
כתפו
מינאי
נטירותא
שהכיר
שאינ
שמעמידין
שבאין
כתיקון
כבס
בליעל
עבודתה
מיותרת
הכנעני
אאיסור
ליחד
##פילתו
דבקרא
הנשמע
בחתימה
ליהודי
ענינם
שמראה
שבעלי
לבתולה
##נ"ת
##בררה
בסייעתא
ונפלא
עצות
נתיאשו
נחשוב
שנתים
שפך
שפעם
כתקנה
מכרם
זרעם
שנקבר
הבחינה
חשבונות
ויכוין
יציא
##קוש
ואינ
בחתם
היולדת
חדשי
מצומצ
##קאות
דבימי
האל"ף
ואדעתא
בהתראה
מוזהרין
חברייא
ואכילת
המצווה
ומחר
בגוה
כשליח
דס"ת
ותרתי
##קדשתי
משאיל
ביאורו
מתחילתו
אשתרי
תנחום
ג"ז
רחיצת
השחי
בבינונית
בשוכר
נצלה
כפרתו
אודיעך
קיש
שמברכים
מגירושין
דאיתתא
משתכר
אשתמיט
##כרונות
תאכלנו
שיעבודו
##ש"ט
שאכן
ובטלו
מבנין
ותולה
לנדר
נעביד
שותין
מתייח
מיבם
לברכות
שתתגרש
אחוריו
וציצית
צוהו
בסמ"ק
יהרגו
ומועד
פלגי
שתופס
הנכנסים
גייז
אקשינן
קרוש
שבדק
דבסתמא
מדחי
החמין
וקרקעות
##שבויה
וטמאה
עשיתם
כנוי
לדינו
גמרה
ייטב
נתוסף
##ד"ק
השיבה
דמשב
##פקיעו
##קיפין
כדבריך
אסיפת
נשיו
בהתר
מצפון
ופורע
קבלוהו
מיו"ד
ציצין
כיוונו
לחתנו
מנסך
להנאה
שבמד
וגורם
וקש
וסלקא
ריב"ב
ושאלה
הלבבות
במאור
למתלי
כשירצה
יולדות
שהצריך
שהודיע
ממסכת
##שותפות
ושכיח
בירק
ונאנס
##רצנים
ואיסורא
שבימי
שדים
שאנסוהו
בשמם
ועבדו
##יחדו
עצמנו
מסלקי
דשמן
לפסלו
למשכב
נתבארו
##שמישו
עריפה
שמצאה
מארצ
מבו'
מסתי
סופג
הנסכים
משלימין
דסורא
דהנאה
בתיק
כדם
פס"ר
שייחד
המרובה
מיתתה
מרוטנבורג
ערע
שנפרש
מעדים
מתלמידי
דליל
##דר'
וקושית
##זיקא
שיחזיק
דניתן
וריטב"א
לקראתו
שימסור
לערכאות
ופשע
כער
סיבות
ראב"ע
יחיו
חזא
והבנים
בבה"ל
בשערים
לפלוט
כמסירה
פדת
##ו"ש
שהפסיק
המכשיר
כדור
אניס
עבורה
ובאות
##מסיים
בכהונה
זמה
##פאת
ואופן
אחולי
השרי
הגואל
העושים
הדרוש
בחינם
לשמר
לדיו
מסוי
שחקר
##גדת
הי"מ
דושה"ט
בטחו
##אלמנה
ירויח
נסכא
לטפויי
שמלבד
דבפ"ק
בפסיקתא
באג
שמפריש
לבזבז
##זקנים
נקטי
בזמנם
והר'
מיבעי'
נשבעים
הוזכרה
יישן
דמתח
בביעור
##סייא
מבריח
שורך
אתרא
בחירה
בכלאי
וי"ב
בזכר
עשור
החומץ
הועילה
דחת
במישור
לפייס
בבתו
##פלגת
קדמאה
דראב"י
תגרע
ליורשיה
מתניתן
##ושיתו
בונין
דגופו
הציון
בראותו
מוקמי'
מנהון
מאלף
בהשגחה
סביביו
דיתכן
גזרות
גנבים
דלחומרא
הקציר
מקוד
שחוששין
המשמר
אלהות
המרו
דנהנה
התב"ש
איצטריכא
ואיהי
בהניח
השינים
לשמירה
שו"מ
דשכיב
לרשום
הצפר
##מנונית
סהדותא
ועי"כ
יפרעו
לגאול
##יטוף
דאסורין
המהרי"ל
ויבטל
הפשתן
ואלמנה
##מדובר
מחמשת
וכרבי
והפס
שמסתמא
הסחורות
##דהר
וימכר
שתמיד
נחשבו
סמכות
דהדרא
##פוע
לחבול
ודה
הראשי
הראייות
משה"ק
חשכה
ובכלי
ליחוש
מלוקח
ובמעשה
תחשוב
להערים
לסוך
קובעים
מגי
ספסל
להתב
שאסורים
לעירו
לדיר
אמורה
שליחותיה
תחשב
והגיד
ומכלל
מכותל
השתדל
בהקדמתו
נבה
דמכירה
הכעס
דבאי
ונ"ב
יחייב
כמנהגו
##פריד
שמתכוין
לאוכלם
ופש
ירעו
שבדבר
שנר
אלג
הכללים
הצירוף
אנפשה
הוקשו
בדרכיו
נשותיהם
##ידוד
המאוה"ג
שאלתך
דהכ
שנמל
וחדש
הזריעה
כו"כ
##טמאו
שיחשוב
ואיתימא
והרה
והישר
רבון
שבפרק
בסבת
שחז"ל
דמתנת
וירצה
רפוי
אמוראים
בינונים
##סכם
דכמאן
דכתיבה
והנתבע
דזאת
לשרות
פושט
בהתח
דמצטרפין
למדבר
אפקע
ותקנה
המונע
ירחיק
שיודעין
כשאכל
נסרים
דלמעלה
ויקר
העברים
וחיל
בצואר
תתקבל
עמלו
אתאן
לעזור
נתרו
מסימן
מקריא
##פידין
למשמרת
בבריתא
תמימות
כריכות
ממקומות
שישלים
דעוף
וזכו
במשניות
בשאינה
נזכרתי
לרוץ
בשותפין
הקשיתי
מהריק"ו
נטרונאי
ניער
שהגביה
ומשתה
למג
לתר
שלוו
אנפשי'
מיבמה
האורח
שתמהו
שהניחה
גונ
קלוש
##טחו
מה"ש
בדאמר
דהאמת
והר"ם
סמנים
השחרור
שהזיקה
התי"ט
וככה
הרכוש
מחבת
בזהר
דקלים
קצ"ד
היסודות
טצד
עפ"ז
מדב
ולעבור
ויל"ע
ואשכחן
פדיונו
חקרי
עניה
##חוש
ההדס
תקפה
ופלוגתא
לנדור
כולנו
פרוצה
נבחר
מלקט
##ואתה
להפיל
והכרי
שהחו
##דונים
לזבוני
שבא"י
בכתבו
יכתב
ואדוני
דאקרי
במכל
דבפחות
דבכורים
##קדקים
לחנוני
וחיים
בפסוקים
דבאופן
מציאותו
לשליחות
חורבה
בתקנתם
רמון
לאוד
ידי'
בקו'
להאב
שבדקה
שרשאי
לאסת
ובצד
דמלת
ושעל
כמוכר
בב"נ
מפטיר
ירחא
והנשים
ומספק
##צטרפות
שבלבו
מסייעו
יציאתו
במ"ק
הש"ג
ועקר
דבסו
כאבן
כשד
תקצ
##טאו
וברמ"א
המרכבה
אוקמא
הפלפול
הקטנות
שיגרשנה
דליח
בקצור
מועילים
הברכ"י
כיני
##ינברג
אוצרות
לבנ"י
בגולה
בגחלים
דקמא
שחושש
הזימון
דפטרי
ואח"ך
גדילים
רס"ז
חוקת
דמוד
חסה
##ח"ז
שאמנם
ומ"א
דמפסיק
ממית
##ופך
כשדה
ויגד
מרכבת
מגזה"כ
וסופה
יקיימו
##מירתא
רצופין
שאח"ז
מיראת
הנעשית
ופועל
דבברייתא
שמחו
העוסקים
הקמת
הריגת
בקעה
ומעט
ומעיד
כמספר
ת"ב
לאקנויי
ומנהיג
לחשוד
לכסף
##גלד
גללים
להבעלים
גריסין
הוראתו
שחיטתן
וצל"ע
גוב
דא"נ
יורינו
##נתק
מכנגד
ות"ח
נאבדה
פתרון
##מסמס
##כניע
ובפרשת
בבאו
קדוה"ג
גורסים
חידושא
מייתינן
הנותנת
וטל
כיעו"ש
המתני'
ומפרשים
בעודם
בח"ס
כתבתיו
שבאדם
מתיחס
דנוגע
עוקץ
קונמות
כליות
ועקרב
בפשט
בתירוצו
##פשין
לטחון
ובראש
דתא
כמדבר
כליה
לשמאל
##ירום
נפו
דהותרה
שבשאר
##ליים
כאותו
שיפסיד
ובשנה
דמתירין
תזבח
##ממה
דהולך
מערים
בחמשים
וגזר
שבאם
ועכשו
מתריעין
בקונטריס
ד"ב
ששוב
בהתחלת
ותלמוד
בזמנים
##קשרו
נמנין
מדיח
זיוף
דמרא
דניחוש
וכ"ט
דאסיק
כיור
שויה
שיפטר
מחמתיה
הקדושות
פשוטי
והתרו
במעשיהם
יורדת
נמנעו
רואי
##ולא
משמוש
כסותו
ונתקיים
ומיעט
דמשנתינו
וטול
סמפון
להב"ח
דאסרינן
##ינוהו
וממ"ש
משלך
לכיפה
כתותי
קע"א
ובבבלי
הנקבה
מלבושים
##צעו
והחלב
##יעבד
בחלות
הסגר
דחנוכה
##מידים
חשמל
דמוחזק
מפרשין
הגרסא
שהנכסים
ושכ"כ
דפירשו
גה
גולל
דפועל
לדיוקא
##ורית
ורגע
שיעוריה
##ונ'
קיץ
ובמקומות
ממעשיו
במציעא
הגרי"ז
כברייתא
קצה"ח
##לכת
##קרים
##מאתן
שנר'
לחמה
מצליח
דקול
מסית
דחמס
בריות
##ציג
מדברינו
ליתסר
אנטיג
לידם
והערב
הכוונות
למרק
שקבלנו
ומנלן
קרוע
ומסו
ונביא
##יתאה
שפתו
קנסוהו
ויבש
דהמנהג
מלהיות
ואכילה
וכולל
השן
ידין
הנופל
קע"ד
השגחתו
שהזיקו
שמקנה
בגרה
וקס"ד
ההרוג
לסניף
מטילין
בכוליה
גירסתו
הבימה
דיקלא
לערוך
העזה
ההגה
דשקל
אשמע
ומסרו
##נגזל
באשכנז
אזהר
ומשי
מאשת
בקורה
לאוצר
##ינתיה
שהאומר
עש"ך
קצ"ג
##יכוון
מהגוי
ההפלאה
יוליך
לאמיתו
מששת
דמני
הגחלת
מתג
האימורין
כסלע
ירמוז
חסדך
סוסי'
יזרוק
##ברתם
בפט"ו
לכולה
ויצהר
הכיור
##חזת
חביבי
הכתלים
גיו
יעל
בש"ש
מכגריס
יבאר
תחי'
כתרומה
דהוחזק
דבממון
הירקות
כשמגיע
בהדלקת
שמשתמש
להעיז
דאקשינן
הקיל
אדשמואל
ומפרקינן
אמאן
##עודות
בעשרת
שנתארמלה
כדגרסינן
דגנב
מניומי
כדאית'
הודעה
ויעלו
חכמות
התוגר
במצורע
הקהלה
תטבול
השיא
שבחוץ
בס"ה
בתולדה
הראבי"ה
וכליו
ולהשת
ומונה
כעובדא
נפלים
עשייתה
עמידת
איו
סבות
##נ"ז
וכנסה
מעפר
לחיובא
בל"א
##בע"ח
ורחץ
דנגעים
שליחותייהו
דלהך
ושהיה
להזמין
דנפיש
הוצרכה
כאמרם
ולעומת
חצוצרות
צרוף
והכהנים
אתני
דכשאין
לרבותינו
מתחלק
הילל
שהחכם
הרש"ך
מפרנס
לירח
חריפא
שלדעתו
שהצריכו
יתבארו
סתים
ומשלים
לח'
מחיקת
יעזור
דחלק
##עימים
נגרע
תעשר
במודר
נתחלקה
והצילו
נמשכו
דאשכח
אזרח
ניר
שזק
שהקונה
משמ'
שעבדו
דש"מ
אמתת
המשתמר
עפי"מ
למנצח
כילוד
ישיבות
שבטו
אפש
כללים
לר"פ
לרחם
בעיירות
##כילים
ובלח"מ
דמחיל
מתאבל
בהליכה
ועשאן
רפו
##חה"פ
שמעי
חברון
צינור
בדיל
##מוהי
ויקדש
שילמדו
תשוב'
ונחלה
תפוחים
כסתמא
##ונן
מהרהר
משנין
התמורה
ונשאה
איסורן
לרמב"ן
תקחו
שיתח
כ"נ
קנקנים
והלכות
מתנבא
כשתב
ומשך
הילדה
מוסיפים
התירוה
לאתנויי
וממו
חורי
שחילקו
כנפיו
קושיין
ואהבה
כמאמרם
ישכב
הסיט
לסמיכה
כגדול
תחלי
חסדי
שפטר
דמעכב
דבהקדש
נתרצו
ומבארת
שלמו
יהוא
מסבלי
שימותו
בריתו
מגזירה
נוטים
והגוף
שצידד
השטמ"ק
ירים
סביר
ואמינא
למכה
שמטעם
לחין
בפנויה
ריבות
רצוי
##פלוגתא
סד"ה
זקוקתו
ונדון
ונזכה
לגמר
בנייר
כעץ
לנפשי'
הקרשים
ופרה
המ'
מעמך
שמחים
הגזית
בחזו"א
הסי'
דחזק
ויפלו
יתורא
דידים
שמיטת
נביאי
הנערים
במבטא
זעיר
חמו
ולנק
דביקות
יהדות
ושמרו
מסיר
לתתו
אשמו
המשמש
קליפות
העליונות
ולזאת
משבע
בג"פ
ותיקון
הזיעה
שגופו
חשיבה
דמעשרות
להסיק
##יניהון
דעייל
דציצית
פשתים
ואשיב
למעלת
הבודק
להתעלם
תרח
המעורב
ממורי
דהתנאי
דהבעלים
וכוונתם
עסוקים
וינה
יפסוק
ישבה
השגתו
##סורת
נייח
##רגז
פליטה
ריבויא
ברום
##נוי'
אחזה
דברוב
ולהשיב
באימה
מושג
ואשכח
דתימר
הטרפה
המחזיר
נתפר
שיעורין
דמוסיף
ליבשה
הנשרפים
ולטעמיך
##מייא
בכסות
מלכה
נתמעטו
שתייה
טבחי
ענש
וסומך
להשביח
העשויים
סרוחה
רועים
שטן
אורים
שמדובר
דקבלת
שע"א
בכש
ותענית
שלוקין
דכופר
הברייתות
דאשמועינן
ליאסר
דפירי
ספי
שהקי
אופני
כתבוהו
וכתבת
גופין
והתנאי
ליבטל
היבשה
צנוע
##ברן
וביו"ט
##קדמנו
מתל
החתימות
מכורין
והר"א
נדבר
לזולתו
ברונא
להט"ז
חרוץ
בעקב
מבגד
##פותחין
ששחטה
שהשכינה
וכהא
הברזא
ד"ש
דטרח
חוה"מ
מחית
לקצוץ
נתתיו
שחושב
שדח
דיבום
דפש
פונ
##ז"ג
והוסיפו
בעבודתו
החלקת
שיהנה
חסירה
והשואל
באורים
קניתי
דבכלי
נטל"פ
ריקן
יכבה
##גנו
##ערבו
להפרע
דהמב
המעידים
חבילה
דבעלי
דאסיר
יעשנה
תטע
##ירח
האמרי
האזכרות
שבידה
דלישראל
לביתם
חנטה
וחתך
העשי
מפניהם
הפ'
ארצי
דעבדא
שהנותן
שנשים
דבעה"ב
בדרב
דחיובא
כרמים
עבדת
דילי'
תבנה
דקדים
האוכלים
נתבשלו
תכשיטין
עריסותיכם
##אלו
ומקל
שנפסלו
דקרינן
דתשמיש
##טיך
טפילה
וירח
עזבו
גרעון
בבהמת
##פתחו
מדאוריי'
קטלינן
לצי"ש
שקיבלה
לילף
מצחו
לשעות
בנבלה
כהח
ותכלית
גדולת
ללקוחות
המתפללים
בשליש
הנושאים
##דביק
והבעלים
##סוריא
שילמד
##נצלות
חרבה
טמאי
##ורגו
אוז
השפה
שמפסיד
בפתיחת
אותות
לייחד
הפודה
הפנויה
שתקנה
עדיפות
שדנין
במחצה
ועדיו
והקריבו
איפליגו
מפקי
חותמים
טומאתה
בצל"ח
להשיאה
כאמרו
להחם
איסי
שמכחיש
כהרי
לנכרים
מזויין
האומנים
שאסורין
קס"ב
גריד
עבדיך
להזדייף
קפץ
שהתב
הדברי'
##קימת
דבאשה
ציציות
בעינייהו
יחללו
ושותין
ונתעברה
##ינסבא
למיהב
מני'
ומתחלה
איסו
שמכוין
דברות
הפתוח
הציווי
שהבאת
חקירת
לצעורי
פ"ש
קצי
הבטח
דכותב
הלילות
דשעת
שתכלה
האבילות
##טריח
##כנעה
שלחני
הלוואה
קשקשים
במגילת
חומשין
קובעין
שמתפללין
משעבדי
בסכך
מקמיה
לימודו
שיגביה
והאומר
דתצא
מהרשב"א
שיחלוק
שיסמוך
נפסלין
חמאה
##ריף
במיא
דבורה
דרמיא
בגודל
יספר
דכתבתי
נרצה
במחכ"ת
שזכות
הורדה
למחילה
וכלהו
המליחה
מחברים
פחותים
קדשך
ותבא
יקדיש
##ירתן
וממאי
החרבן
לגיהנם
גופים
ימיר
במימרא
מתעורר
בהיותי
קבעי
דדייקא
הארבע
ודק
שניקבה
##סיס
שרואים
ברשותא
במקרקעי
נזקיו
רפ"ד
חנא
כנותן
##ושק
שנזר
דמזוי
שעון
קיימ"ל
בישן
במד'
לפלוג
משכ
##פסר
שעמו
כשנולד
דבדיני
היי
##מילות
שהוס
שהפילה
##מאכל
שבויים
##ילוקו
בחיה
לגת
חליו
קמי'
פשעו
איבריו
במרובה
נופלין
היקרים
מרחשון
יתענה
דבשוגג
זבולון
היכולת
##ולטת
שהמל
##וקמתא
דבדאורייתא
לשתים
הקבלן
עשרונים
דאתינן
אריח
תדור
חייס
מתבייש
שבבבל
לדיינים
תכלה
##צויים
לתרבות
לאשכוחי
ונשארה
שפסקה
נתקבלה
דכרת
##חרית
##כוי
בוריו
וס"ת
ושבים
בריאים
שבגמרא
המורכב
סגן
ואבא
והחר
דבתחלה
וקנס
ויבר
לט'
להגמרא
בעומדת
לסת
שכיו
ודחו
לדר'
כאל
כדר'
חיילי
דהריטב"א
שזוהי
בהגדה
מפרשה
טיפין
טרו
##יניש
ומיא
אפכא
החות
ולהצ
שנתגלה
הטבה
פליאה
שוחטים
החרשת
משתתפין
כידה
המציא
שב'
עד"ז
שומת
לתשלום
במהרי"ק
למוטב
מוהרשד"ם
ותמהינן
זללה"ה
נושאת
##דני
הגס
בק"א
שיף
דנגד
לכלה
לאחין
דשויא
שנקבע
ולטעון
##ביבות
אונסו
הח"צ
##ופף
פטורא
עליית
והתשובה
##נענע
תלישה
אידחי
ווע
חפירה
האמר
הכ'
בדת
הקצות
ממשפחת
שכירותו
בעו"ה
אילים
העז
ונכסי
הפורים
איסורה
כנש
נכריות
דתיכף
הקדשו
והתר
חכ"א
שרוח
רס"ח
מספיקין
ואשמועינן
שעשאן
##פכים
להטע
שהחתן
מהשל
שכבה
הכינוי
דבמאי
בנשא
##רעין
##צונים
לנשואין
חלוש
השתמשות
אויביו
תמצית
##פתם
המזרחי
ומכיר
ולנו
התינח
לשעתה
יעוי'
זוממים
ינהג
ההורים
##צרין
ומחוייב
ובח"מ
למידחי
יגר
ומבין
ועמש"כ
ממלכות
יבשל
##פתחות
עפי"ז
דהולכין
אפיקומן
##כשו
להרה"ג
##סתני
נשואות
חיתוך
##גולים
לאשם
לבישת
יונית
יצוייר
שריק
השוגג
שהקריבו
אשכחיה
##מוכה
דהמחבר
השתיה
השחתת
מצודה
פרדס
שיכירו
רחוקות
חפצה
למראית
תלוה
##רוני'
ומידי
שנטרפה
דבמשנה
העטור
וחבריו
##יריה
בטוי
שיגיעו
ומתרצת
בחברתה
גת
חינא
רשי
משילין
התמיה
דסכינא
דגזה"כ
פענח
ראייתה
מכשרינן
מריח
שתבוא
דאסרי
הקללה
לרעות
ובצירוף
ונתערבו
בצאתו
מהמע
הארת
בשמונה
ובישול
##כבך
שיעלו
עייאש
והמקבל
ובגט
יי"ש
במליקה
מחמצת
בלה"ק
נמח
והמצ
והברייתא
שמץ
לבקרו
מדס
מכלאים
ההן
נקודת
ורמשים
אישי
ומוש
במוס
אשתהי
ענפים
צויתי
ווייל
בגז"ש
וברך
##ר"ש
##רוסת
יתננו
תפילות
זרעה
שלמדנו
ספירות
##מיני
שכ"ד
פעלו
נגדם
רע"ג
והעלו
בעירובי
כקורא
הרהר
מפרכסת
זיזין
סידר
יודי"ן
דהריב"ש
ולטבול
שבחר
כדרבא
כשזה
##טווה
עשהו
השאיר
בענבים
באיל
בדה"ב
מרצון
דנשא
ומשמר
אומץ
ושמי
אביכם
##טבילו
יחלוץ
אתייא
לידך
ארובה
וטענה
תמיהתו
שנתחייבו
##פקעינהו
שלקה
ובכהאי
רבבות
ותשע
בשופי
כפיהם
הנזכרות
הקולמוס
עילה
שהשלים
והריני
הטביחה
בריאות
חרות
תמכר
##פ"מ
בהודאת
כשנע
וחילק
נקם
ויפול
אדמון
דילמ'
ומחוסר
השי"ן
ונקיט
והשוכר
בצרור
בתעניות
עפרון
נתכוונתי
הופיע
כהש"ך
שכת
התמרים
מחובו
ודקא
בכנסת
יכולות
וירק
וכה"א
שבגלוי
ודייקינן
לזלזולי
שהעבד
המתי
אפה
מונים
דסמי
ותלינן
נא'
שתולה
המחוייב
דסומא
וכנז'
אבודרהם
##טלין
הפו'
וזבה
ואתרוג
אשתני
להשתחוות
ישאלו
אדרכתא
אתינא
##ירוגין
וחלוצה
לס"ס
חיצונה
מצותי
קו"ח
מיוח
קצ"א
לאשמועי'
דמקלקל
דלרבינו
גדיים
יריד
וממעט
ולשא
הש"ל
הנטען
מגיה
ברשותי
רפ"ח
לאשפה
שהנכרי
מקרבך
כדש
בזהב
ליצירה
שישמור
##בענו
זולתם
ובריא
והחל
##מונאי
דהוק
כרצון
דמחיים
##ילותא
##ודית
דבחזקת
ונטלה
בנכייתא
בתוקף
טלאים
##לי'
##מכור
ובכור
בדמיה
מדש
כשנא
נשמעת
שהוחזקה
דלהרא"ש
והדעת
לנתינה
תתחתן
לשבועת
האנס
דכ"א
הלמ"מ
##פלפל
דתרומת
המחלה
מעותי
שהקדישו
בברור
דקדשה
להשקותה
עיקרה
עלויה
בשטה
שבילין
מתפ
ברחמיו
מופ
מאורות
אבעיא
פעור
שיודיע
מעותיך
פתילות
למוכרן
דממנ"פ
אנטיגנוס
כרית
שמעלה
מדינת
ניגוב
אדעתייהו
אסו'
שנטמאת
ח"פ
##זנא
##דרן
לידתה
ולומד
דמסלקי
בטא
##כשל
לאק
המכריע
מדע
מחבריה
ההבדלה
חוכך
שימכר
יאמין
רחבים
הקוץ
שראהו
המנוחה
בלעדי
התנועה
נכללים
ביכולת
והובאו
מברכה
עמיה
דבאת
בסכום
פסים
כהונת
נושה
ששלו
עירנו
במומו
מגז"ש
##נדה
לווי
המשיך
וח"ו
בניקב
גזילות
שספר
שהמקדש
דאתרוג
להטריח
יקב
ינתנו
ולכא
למטען
##טרן
הוזהרו
ילקוט
וחומץ
מסוגית
רותחת
וגרסי'
שחולקין
##שבורן
מציון
מצ"ע
אבודה
מסדרין
שתלך
שריבה
מ"פ
ול"ג
העזים
לכרוך
הלכתי
לאוכוחי
##חדשות
בשוטים
נהפוך
##קרין
שאלתם
וכהנה
שאיפשר
ולהעיד
ביקור
ד"ו
זעירי
וכמאמר
שהגד
##וי"ל
הפקד
דאיסורי
משתדל
לעירוב
לדורותיכם
##תחומין
חוצצת
להושיע
פורת
המפסיק
שיהרג
מנדרים
שיתירו
ובמק"א
ריחו
לשתיהן
הירא
לינו
פנקסו
שהבת
המשמע
בששי
ושגג
כמזיד
וראית
מיתתן
חלוצתו
מפקא
##ד"מ
##גיה
##מתינו
במהירות
אדונינו
יכבד
וב"ב
באמרה
שבמשנה
מחוק
ונכו
דעובד
הדיוק
##פידה
שאגת
בתפלין
בחביות
##גוזים
המשיכה
ומאמר
חרון
##ספורת
להאו
שהשא
שבלו
##שא"מ
זכותם
השאור
סי"ג
מחזקתה
לתנאיה
דליקני
נקדים
קצוה"ח
וכנס
שכרות
שמקדש
##סהודי
אכילות
בצלים
דמקודם
ולחייב
תופסים
ובזכות
שבדין
מאבי
מפלוגתא
שישי
היורה
##כנתי
שהעלו
ריב"ם
ותשעה
והוכיחו
וקשרתם
תימצי
מייב
מרמה
ניצוק
נדנוד
פריק
במערה
פלפלין
במקצתו
רפואות
כשירים
יאשיהו
וניחוש
ניוול
סקט
וכתבה
לתחלת
דשלוחו
כשהבעל
דחשו
חסידא
הכתובות
חנון
גוררת
##חזו
ואנשים
שהעו
כלפנים
מעושר
מחלון
החביב
בקרית
וסוד
ומוחזק
והמקדש
ויודעים
מחיצתא
ובדק
שהגוף
בלבבו
צדקות
תוב"ב
דשתיקה
חשון
סליחות
ומעלתו
שנטעו
למיהוי
העמדת
למיגר
נהיר
חיובים
אר"ש
שהשמחה
גריעותא
##למידים
דיבוריה
הנרדף
בהולכה
ביחזקאל
יטהר
סדק
ועשר
ואפ"ל
הנהיגו
כסאו
דהוצאה
והרא"ם
מונחין
אהבתי
טצדקי
עיקרא
##מנ
##וררו
##מוכין
רב"י
בחטים
ממטלטלין
שמורים
שיחלקו
לרישא
אישתרי
הרמ"ב
להיתירא
המעיל
בשולח
ומדו
המשקים
בראייה
ביומי
שנשאו
ימהר
והנס
##תוקי
בתירה
הצפורן
שנתמנה
המתקיים
קנהו
שלחתי
עבורם
הלויתני
כשעבר
מוהרימ"ט
הראשוני'
##שול
בגני
נתכפר
דדחיק
לזימון
סרכא
חיטי
##בטו
או"ד
ולצד
הש"מ
ידיהן
להתגבר
אורחין
המרק
שהחפץ
רי"ש
##חיתות
##מסס
דבקידושין
העוזר
קורת
בהקב"ה
הסבר
דובר
נחתום
ולהכניס
האומד
החוזה
ביניכם
מוהר"א
ומניין
בוצע
נקוד
וזל
ימיהם
וחומרי
##מעוט
שיוצאים
שנפרצה
עלאין
החז
לד"א
מרש
המשקל
בצפורן
ביבנה
מיחל
בביאתו
##פוף
הראב"ע
בידא
ויורש
##סרח
בעה"מ
הנאכל
דאומן
ביעורו
והזיקה
מוגלא
בטבול
##שולי
שהחל
##זהב
##לישה
לסגור
צדדיו
ומותרין
יביאך
הפלתי
גנוב
##תנו
לאלף
הנורא
הקדימה
וששאלת
דתיקון
מגבין
הכלבים
עשויות
יורשו
מועדים
חתימות
יגל
יגלח
ערק
והנא
ולעתיד
רבם
בב"ת
ולהרא"ש
ולפחות
להרדב"ז
מהווה
דיודע
ובקשו
ששחטן
הוכרחו
##צנים
לעשו'
למין
מע"י
דלחם
לשחרר
מאירה
מנותר
ופניו
דכתבי
ובערוך
שותפי
תתקדש
מיעוטי
גלעד
שינויי
גרוש
##ילח
והכיר
דבנת
##תאה
לד"ע
וקבעו
לסנהדרין
מודעי
התרצן
11
השעות
דנבלה
הזאב
אהוב
נפחא
לכתובת
לשאלת
תכבה
##פיסול
מגלות
ישתעבד
זרח
דהודאת
וליל
בסה"מ
ומתפללין
דבאיסורא
זש"ה
##ארה
המשותף
דבכ"מ
דנפסל
שפתיך
דטמאה
רכ"ז
יניקה
דחתיכה
לתוספות
##עדה
והרוח
דהשב
היאור
דתולין
פרצ
ופגע
במע"ש
דשוחט
ולכתחילה
ונפ"מ
דחולקין
שבקי
##חרות
##בורתה
המשבר
המשולש
ששנו
מנוקה
לאוכלין
סירוס
אמון
סחור
##פדו
ואסורים
שהשוה
בדנ
ותפילה
לתגר
##צוצי
פרטא
מקוואות
שילמוד
לתלמידיו
כמדת
במתה
##יטתן
ורואין
בריב"ש
ארבא
מחויבת
דהחילוק
חתימתן
מזבחי
גמלא
חברך
מרה"ר
שאמרינן
באסור
בספיקו
בתשב"ץ
##וענו
שימשוך
לרצות
כחן
וט"ו
דשא"ה
דקיימ"ל
הקונים
לתבשיל
רנ"ט
למדה"י
עיוני
אפייה
מתם
כדפרי'
וישובו
נחשון
נפיל
לנכסיה
כמקום
והשמן
מינכר
ובליל
אג"ק
בחצרות
ועומדין
מתאבלין
בחזקתן
לדחויי
ממקומם
סז
עורר
רכים
##גשת
בשמירתו
למנחות
בלול
##פלט
שתולין
[...]
